{
  "version": "1.0",
  "truncation": null,
  "padding": null,
  "added_tokens": [],
  "normalizer": {
    "type": "BertNormalizer",
    "clean_text": true,
    "handle_chinese_chars": false,
    "strip_accents": false,
    "lowercase": false
  },
  "pre_tokenizer": {
    "type": "BertPreTokenizer"
  },
  "post_processor": {
    "type": "TemplateProcessing",
    "single": [
      {
        "SpecialToken": {
          "id": "[CLS]",
          "type_id": 0
        }
      },
      {
        "Sequence": {
          "id": "A",
          "type_id": 0
        }
      },
      {
        "SpecialToken": {
          "id": "[SEP]",
          "type_id": 0
        }
      }
    ],
    "pair": [
      {
        "SpecialToken": {
          "id": "[CLS]",
          "type_id": 0
        }
      },
      {
        "Sequence": {
          "id": "A",
          "type_id": 0
        }
      },
      {
        "SpecialToken": {
          "id": "[SEP]",
          "type_id": 0
        }
      },
      {
        "Sequence": {
          "id": "B",
          "type_id": 1
        }
      },
      {
        "SpecialToken": {
          "id": "[SEP]",
          "type_id": 1
        }
      }
    ],
    "special_tokens": {
      "[CLS]": {
        "id": "[CLS]",
        "ids": [
          1
        ],
        "tokens": [
          "[CLS]"
        ]
      },
      "[SEP]": {
        "id": "[SEP]",
        "ids": [
          2
        ],
        "tokens": [
          "[SEP]"
        ]
      }
    }
  },
  "decoder": {
    "type": "WordPiece",
    "prefix": "##",
    "cleanup": true
  },
  "model": {
    "type": "WordPiece",
    "unk_token": "[UNK]",
    "continuing_subword_prefix": "##",
    "max_input_chars_per_word": 100,
    "vocab": {
      "[PAD]": 0,
      "[CLS]": 1,
      "[SEP]": 2,
      "[UNK]": 3,
      "<0x00>": 4,
      "<0x01>": 5,
      "<0x02>": 6,
      "<0x03>": 7,
      "<0x04>": 8,
      "<0x05>": 9,
      "<0x06>": 10,
      "<0x07>": 11,
      "<0x08>": 12,
      "<0x09>": 13,
      "<0x0A>": 14,
      "<0x0B>": 15,
      "<0x0C>": 16,
      "<0x0D>": 17,
      "<0x0E>": 18,
      "<0x0F>": 19,
      "<0x10>": 20,
      "<0x11>": 21,
      "<0x12>": 22,
      "<0x13>": 23,
      "<0x14>": 24,
      "<0x15>": 25,
      "<0x16>": 26,
      "<0x17>": 27,
      "<0x18>": 28,
      "<0x19>": 29,
      "<0x1A>": 30,
      "<0x1B>": 31,
      "<0x1C>": 32,
      "<0x1D>": 33,
      "<0x1E>": 34,
      "<0x1F>": 35,
      "<0x20>": 36,
      "<0x21>": 37,
      "<0x22>": 38,
      "<0x23>": 39,
      "<0x24>": 40,
      "<0x25>": 41,
      "<0x26>": 42,
      "<0x27>": 43,
      "<0x28>": 44,
      "<0x29>": 45,
      "<0x2A>": 46,
      "<0x2B>": 47,
      "<0x2C>": 48,
      "<0x2D>": 49,
      "<0x2E>": 50,
      "<0x2F>": 51,
      "<0x30>": 52,
      "<0x31>": 53,
      "<0x32>": 54,
      "<0x33>": 55,
      "<0x34>": 56,
      "<0x35>": 57,
      "<0x36>": 58,
      "<0x37>": 59,
      "<0x38>": 60,
      "<0x39>": 61,
      "<0x3A>": 62,
      "<0x3B>": 63,
      "<0x3C>": 64,
      "<0x3D>": 65,
      "<0x3E>": 66,
      "<0x3F>": 67,
      "<0x40>": 68,
      "<0x41>": 69,
      "<0x42>": 70,
      "<0x43>": 71,
      "<0x44>": 72,
      "<0x45>": 73,
      "<0x46>": 74,
      "<0x47>": 75,
      "<0x48>": 76,
      "<0x49>": 77,
      "<0x4A>": 78,
      "<0x4B>": 79,
      "<0x4C>": 80,
      "<0x4D>": 81,
      "<0x4E>": 82,
      "<0x4F>": 83,
      "<0x50>": 84,
      "<0x51>": 85,
      "<0x52>": 86,
      "<0x53>": 87,
      "<0x54>": 88,
      "<0x55>": 89,
      "<0x56>": 90,
      "<0x57>": 91,
      "<0x58>": 92,
      "<0x59>": 93,
      "<0x5A>": 94,
      "<0x5B>": 95,
      "<0x5C>": 96,
      "<0x5D>": 97,
      "<0x5E>": 98,
      "<0x5F>": 99,
      "<0x60>": 100,
      "<0x61>": 101,
      "<0x62>": 102,
      "<0x63>": 103,
      "<0x64>": 104,
      "<0x65>": 105,
      "<0x66>": 106,
      "<0x67>": 107,
      "<0x68>": 108,
      "<0x69>": 109,
      "<0x6A>": 110,
      "<0x6B>": 111,
      "<0x6C>": 112,
      "<0x6D>": 113,
      "<0x6E>": 114,
      "<0x6F>": 115,
      "<0x70>": 116,
      "<0x71>": 117,
      "<0x72>": 118,
      "<0x73>": 119,
      "<0x74>": 120,
      "<0x75>": 121,
      "<0x76>": 122,
      "<0x77>": 123,
      "<0x78>": 124,
      "<0x79>": 125,
      "<0x7A>": 126,
      "<0x7B>": 127,
      "<0x7C>": 128,
      "<0x7D>": 129,
      "<0x7E>": 130,
      "<0x7F>": 131,
      "<0x80>": 132,
      "<0x81>": 133,
      "<0x82>": 134,
      "<0x83>": 135,
      "<0x84>": 136,
      "<0x85>": 137,
      "<0x86>": 138,
      "<0x87>": 139,
      "<0x88>": 140,
      "<0x89>": 141,
      "<0x8A>": 142,
      "<0x8B>": 143,
      "<0x8C>": 144,
      "<0x8D>": 145,
      "<0x8E>": 146,
      "<0x8F>": 147,
      "<0x90>": 148,
      "<0x91>": 149,
      "<0x92>": 150,
      "<0x93>": 151,
      "<0x94>": 152,
      "<0x95>": 153,
      "<0x96>": 154,
      "<0x97>": 155,
      "<0x98>": 156,
      "<0x99>": 157,
      "<0x9A>": 158,
      "<0x9B>": 159,
      "<0x9C>": 160,
      "<0x9D>": 161,
      "<0x9E>": 162,
      "<0x9F>": 163,
      "<0xA0>": 164,
      "<0xA1>": 165,
      "<0xA2>": 166,
      "<0xA3>": 167,
      "<0xA4>": 168,
      "<0xA5>": 169,
      "<0xA6>": 170,
      "<0xA7>": 171,
      "<0xA8>": 172,
      "<0xA9>": 173,
      "<0xAA>": 174,
      "<0xAB>": 175,
      "<0xAC>": 176,
      "<0xAD>": 177,
      "<0xAE>": 178,
      "<0xAF>": 179,
      "<0xB0>": 180,
      "<0xB1>": 181,
      "<0xB2>": 182,
      "<0xB3>": 183,
      "<0xB4>": 184,
      "<0xB5>": 185,
      "<0xB6>": 186,
      "<0xB7>": 187,
      "<0xB8>": 188,
      "<0xB9>": 189,
      "<0xBA>": 190,
      "<0xBB>": 191,
      "<0xBC>": 192,
      "<0xBD>": 193,
      "<0xBE>": 194,
      "<0xBF>": 195,
      "<0xC0>": 196,
      "<0xC1>": 197,
      "<0xC2>": 198,
      "<0xC3>": 199,
      "<0xC4>": 200,
      "<0xC5>": 201,
      "<0xC6>": 202,
      "<0xC7>": 203,
      "<0xC8>": 204,
      "<0xC9>": 205,
      "<0xCA>": 206,
      "<0xCB>": 207,
      "<0xCC>": 208,
      "<0xCD>": 209,
      "<0xCE>": 210,
      "<0xCF>": 211,
      "<0xD0>": 212,
      "<0xD1>": 213,
      "<0xD2>": 214,
      "<0xD3>": 215,
      "<0xD4>": 216,
      "<0xD5>": 217,
      "<0xD6>": 218,
      "<0xD7>": 219,
      "<0xD8>": 220,
      "<0xD9>": 221,
      "<0xDA>": 222,
      "<0xDB>": 223,
      "<0xDC>": 224,
      "<0xDD>": 225,
      "<0xDE>": 226,
      "<0xDF>": 227,
      "<0xE0>": 228,
      "<0xE1>": 229,
      "<0xE2>": 230,
      "<0xE3>": 231,
      "<0xE4>": 232,
      "<0xE5>": 233,
      "<0xE6>": 234,
      "<0xE7>": 235,
      "<0xE8>": 236,
      "<0xE9>": 237,
      "<0xEA>": 238,
      "<0xEB>": 239,
      "<0xEC>": 240,
      "<0xED>": 241,
      "<0xEE>": 242,
      "<0xEF>": 243,
      "<0xF0>": 244,
      "<0xF1>": 245,
      "<0xF2>": 246,
      "<0xF3>": 247,
      "<0xF4>": 248,
      "<0xF5>": 249,
      "<0xF6>": 250,
      "<0xF7>": 251,
      "<0xF8>": 252,
      "<0xF9>": 253,
      "<0xFA>": 254,
      "<0xFB>": 255,
      "<0xFC>": 256,
      "<0xFD>": 257,
      "<0xFE>": 258,
      "<0xFF>": 259,
      ".": 260,
      ",": 261,
      "▁the": 262,
      "▁and": 263,
      "▁to": 264,
      "▁of": 265,
      "▁a": 266,
      "▁in": 267,
      "s": 268,
      "▁is": 269,
      "▁for": 270,
      "-": 271,
      "▁that": 272,
      "▁I": 273,
      "▁you": 274,
      "▁with": 275,
      "’": 276,
      "▁on": 277,
      "▁it": 278,
      "▁The": 279,
      "'": 280,
      "▁are": 281,
      "▁be": 282,
      "▁as": 283,
      "▁was": 284,
      ")": 285,
      "▁have": 286,
      "▁(": 287,
      "▁at": 288,
      "▁or": 289,
      "▁your": 290,
      "▁this": 291,
      "▁from": 292,
      "▁by": 293,
      ":": 294,
      "▁can": 295,
      "▁will": 296,
      "t": 297,
      "▁not": 298,
      "▁an": 299,
      "!": 300,
      "▁we": 301,
      "?": 302,
      "▁has": 303,
      "▁but": 304,
      "▁all": 305,
      "▁they": 306,
      "▁\"": 307,
      "▁their": 308,
      "\"": 309,
      "▁more": 310,
      "▁one": 311,
      "▁my": 312,
      "▁he": 313,
      "▁about": 314,
      "▁his": 315,
      "▁our": 316,
      "▁“": 317,
      "”": 318,
      "▁which": 319,
      "/": 320,
      "▁out": 321,
      "▁up": 322,
      "▁.": 323,
      "▁so": 324,
      "▁It": 325,
      "▁time": 326,
      "▁also": 327,
      "▁who": 328,
      "▁This": 329,
      "▁had": 330,
      "▁been": 331,
      "▁were": 332,
      "▁do": 333,
      "▁like": 334,
      "▁when": 335,
      "▁A": 336,
      "▁if": 337,
      "▁would": 338,
      "▁what": 339,
      "▁other": 340,
      "▁-": 341,
      "▁her": 342,
      "▁there": 343,
      "▁In": 344,
      "▁We": 345,
      ";": 346,
      "▁some": 347,
      "▁just": 348,
      "▁them": 349,
      "▁get": 350,
      "▁me": 351,
      "▁into": 352,
      "▁new": 353,
      "▁than": 354,
      "▁people": 355,
      "▁any": 356,
      "▁said": 357,
      "m": 358,
      "▁its": 359,
      "▁over": 360,
      "▁how": 361,
      "▁first": 362,
      "▁no": 363,
      "▁only": 364,
      "▁make": 365,
      "▁,": 366,
      "▁You": 367,
      "re": 368,
      "▁If": 369,
      "▁most": 370,
      "▁well": 371,
      "▁may": 372,
      "▁she": 373,
      "▁work": 374,
      "▁two": 375,
      "▁1": 376,
      "▁–": 377,
      "▁these": 378,
      "▁very": 379,
      "▁use": 380,
      "▁us": 381,
      "▁'": 382,
      "▁He": 383,
      "▁way": 384,
      "▁after": 385,
      "▁many": 386,
      "▁could": 387,
      "▁years": 388,
      "▁need": 389,
      "▁through": 390,
      "▁know": 391,
      "▁2": 392,
      "▁then": 393,
      "▁now": 394,
      "▁year": 395,
      "▁back": 396,
      "▁good": 397,
      "▁see": 398,
      "▁where": 399,
      "▁much": 400,
      "▁because": 401,
      "▁even": 402,
      "▁should": 403,
      "▁3": 404,
      "▁such": 405,
      "▁day": 406,
      "d": 407,
      "▁help": 408,
      "▁want": 409,
      "▁best": 410,
      "▁being": 411,
      "▁made": 412,
      "▁take": 413,
      "▁And": 414,
      "ve": 415,
      "▁before": 416,
      "▁him": 417,
      "▁don": 418,
      "▁$": 419,
      "▁But": 420,
      "▁those": 421,
      "▁here": 422,
      "▁right": 423,
      "▁go": 424,
      "▁home": 425,
      "▁great": 426,
      "▁used": 427,
      "▁think": 428,
      "▁&": 429,
      "S": 430,
      "▁really": 431,
      "▁life": 432,
      "▁find": 433,
      "▁For": 434,
      "1": 435,
      "ll": 436,
      "▁last": 437,
      "▁while": 438,
      "▁information": 439,
      "%": 440,
      "▁around": 441,
      "▁off": 442,
      "▁There": 443,
      "▁down": 444,
      "2": 445,
      "▁going": 446,
      "▁world": 447,
      "▁each": 448,
      "▁still": 449,
      "▁They": 450,
      "▁own": 451,
      "a": 452,
      "▁4": 453,
      "▁same": 454,
      "▁long": 455,
      "▁5": 456,
      "▁between": 457,
      "▁What": 458,
      "▁high": 459,
      "▁business": 460,
      "▁too": 461,
      "▁both": 462,
      "▁As": 463,
      "▁did": 464,
      "▁part": 465,
      "▁10": 466,
      "▁different": 467,
      "▁look": 468,
      "▁every": 469,
      "▁place": 470,
      "▁So": 471,
      "▁love": 472,
      "e": 473,
      "th": 474,
      "▁three": 475,
      "I": 476,
      "▁few": 477,
      "▁using": 478,
      "▁things": 479,
      "▁little": 480,
      "▁am": 481,
      "▁during": 482,
      "▁company": 483,
      "▁free": 484,
      "▁New": 485,
      "▁When": 486,
      "▁set": 487,
      "▁come": 488,
      "▁always": 489,
      "▁does": 490,
      "▁something": 491,
      "▁system": 492,
      "▁better": 493,
      "▁under": 494,
      "▁family": 495,
      "▁number": 496,
      "▁without": 497,
      "▁next": 498,
      "▁available": 499,
      "▁including": 500,
      "▁another": 501,
      "▁To": 502,
      "▁She": 503,
      "▁say": 504,
      "▁found": 505,
      "▁service": 506,
      "▁": 507,
      "3": 508,
      "▁lot": 509,
      "ing": 510,
      "▁team": 511,
      "▁That": 512,
      "▁end": 513,
      "▁data": 514,
      "▁since": 515,
      "▁must": 516,
      "▁experience": 517,
      "▁never": 518,
      "▁got": 519,
      "▁might": 520,
      "▁sure": 521,
      "▁game": 522,
      "▁support": 523,
      "5": 524,
      "▁6": 525,
      "▁able": 526,
      "▁give": 527,
      "000": 528,
      "▁water": 529,
      "▁top": 530,
      "▁provide": 531,
      "▁against": 532,
      "▁—": 533,
      "▁‘": 534,
      "▁online": 535,
      "▁small": 536,
      "▁area": 537,
      "▁days": 538,
      "▁important": 539,
      "▁full": 540,
      "▁again": 541,
      "▁week": 542,
      "▁U": 543,
      "▁services": 544,
      "▁All": 545,
      "▁within": 546,
      "in": 547,
      "▁keep": 548,
      "com": 549,
      "▁book": 550,
      "▁feel": 551,
      "▁put": 552,
      "▁show": 553,
      "4": 554,
      "(": 555,
      "▁order": 556,
      "▁away": 557,
      "A": 558,
      "▁With": 559,
      "▁working": 560,
      "▁today": 561,
      "▁looking": 562,
      "▁school": 563,
      "▁start": 564,
      "▁state": 565,
      "▁site": 566,
      "▁second": 567,
      "▁process": 568,
      "ed": 569,
      "▁making": 570,
      "▁case": 571,
      "▁children": 572,
      "▁My": 573,
      "▁7": 574,
      "▁change": 575,
      "▁thing": 576,
      "▁How": 577,
      "▁8": 578,
      "▁why": 579,
      "▁money": 580,
      "▁Our": 581,
      "▁point": 582,
      "▁until": 583,
      "▁i": 584,
      "▁No": 585,
      "▁course": 586,
      "▁design": 587,
      "▁local": 588,
      "▁On": 589,
      "▁didn": 590,
      "▁having": 591,
      "]": 592,
      "▁One": 593,
      "▁market": 594,
      "▁left": 595,
      "▁group": 596,
      "▁old": 597,
      "▁students": 598,
      "▁care": 599,
      "▁post": 600,
      "▁name": 601,
      "▁20": 602,
      "▁together": 603,
      "▁person": 604,
      "▁per": 605,
      "▁These": 606,
      "▁quality": 607,
      "y": 608,
      "▁real": 609,
      "▁big": 610,
      "▁often": 611,
      "▁play": 612,
      "▁public": 613,
      "▁large": 614,
      "▁open": 615,
      "_": 616,
      "▁power": 617,
      "▁enough": 618,
      "▁done": 619,
      "▁At": 620,
      "▁12": 621,
      "▁health": 622,
      "▁read": 623,
      "▁website": 624,
      "▁less": 625,
      "▁side": 626,
      "▁God": 627,
      "▁possible": 628,
      "▁room": 629,
      "▁offer": 630,
      "▁times": 631,
      "▁ever": 632,
      "▁products": 633,
      "▁needs": 634,
      "The": 635,
      "▁based": 636,
      "▁already": 637,
      "▁become": 638,
      "▁easy": 639,
      "▁car": 640,
      "▁along": 641,
      "▁man": 642,
      "▁After": 643,
      "—": 644,
      "▁food": 645,
      "▁getting": 646,
      "▁[": 647,
      "▁community": 648,
      "er": 649,
      "▁called": 650,
      "▁though": 651,
      "▁says": 652,
      "▁doing": 653,
      "▁four": 654,
      "▁program": 655,
      "▁several": 656,
      "▁hard": 657,
      "▁country": 658,
      "▁far": 659,
      "▁call": 660,
      "▁night": 661,
      "▁S": 662,
      "▁project": 663,
      "▁page": 664,
      "▁body": 665,
      "▁means": 666,
      "i": 667,
      "▁least": 668,
      "▁house": 669,
      "▁came": 670,
      "▁government": 671,
      "▁However": 672,
      "n": 673,
      "▁level": 674,
      "▁actually": 675,
      "▁create": 676,
      "▁research": 677,
      "▁let": 678,
      "▁across": 679,
      "▁include": 680,
      "▁took": 681,
      "▁makes": 682,
      "▁line": 683,
      "▁run": 684,
      "▁live": 685,
      "▁list": 686,
      "▁try": 687,
      "▁job": 688,
      "▁University": 689,
      "▁others": 690,
      "D": 691,
      "▁2018": 692,
      "0": 693,
      "▁women": 694,
      "▁past": 695,
      "▁started": 696,
      "▁story": 697,
      "or": 698,
      "▁comes": 699,
      "▁went": 700,
      "ly": 701,
      "▁doesn": 702,
      "▁30": 703,
      "▁once": 704,
      "▁million": 705,
      "▁15": 706,
      "▁city": 707,
      "▁thought": 708,
      "▁season": 709,
      "▁price": 710,
      "C": 711,
      "▁9": 712,
      "▁fact": 713,
      "▁product": 714,
      "and": 715,
      "▁C": 716,
      "▁bit": 717,
      "▁de": 718,
      "▁control": 719,
      "▁event": 720,
      "▁hand": 721,
      "▁won": 722,
      "▁future": 723,
      "the": 724,
      "to": 725,
      "▁form": 726,
      "▁development": 727,
      "▁social": 728,
      "▁yet": 729,
      "▁Your": 730,
      "▁light": 731,
      "▁told": 732,
      "▁American": 733,
      "▁later": 734,
      "▁problem": 735,
      "▁B": 736,
      "▁early": 737,
      "▁example": 738,
      "▁access": 739,
      "▁months": 740,
      "▁plan": 741,
      "▁members": 742,
      "▁hours": 743,
      "▁given": 744,
      "▁non": 745,
      "▁download": 746,
      "▁kind": 747,
      "▁below": 748,
      "▁M": 749,
      "▁video": 750,
      "▁cost": 751,
      "▁share": 752,
      "▁personal": 753,
      "▁space": 754,
      "▁music": 755,
      "▁known": 756,
      "▁seen": 757,
      "▁everything": 758,
      "▁low": 759,
      "▁someone": 760,
      "▁head": 761,
      "▁11": 762,
      "▁current": 763,
      "▁above": 764,
      "6": 765,
      "▁companies": 766,
      "▁0": 767,
      "▁minutes": 768,
      "▁industry": 769,
      "▁believe": 770,
      "▁Do": 771,
      "▁value": 772,
      "▁five": 773,
      "▁friends": 774,
      "▁due": 775,
      "▁following": 776,
      "▁single": 777,
      "▁range": 778,
      "▁special": 779,
      "▁United": 780,
      "▁idea": 781,
      "▁short": 782,
      "▁whole": 783,
      "▁anything": 784,
      "▁fun": 785,
      "▁whether": 786,
      "▁taking": 787,
      "▁month": 788,
      "▁contact": 789,
      "▁Now": 790,
      "▁mind": 791,
      "▁building": 792,
      "▁results": 793,
      "▁pay": 794,
      "o": 795,
      "▁understand": 796,
      "▁study": 797,
      "▁2017": 798,
      "▁learn": 799,
      "▁add": 800,
      "▁perfect": 801,
      "▁D": 802,
      "▁100": 803,
      "8": 804,
      "▁While": 805,
      "▁media": 806,
      "▁check": 807,
      "▁issues": 808,
      "▁buy": 809,
      "▁type": 810,
      "▁please": 811,
      "▁face": 812,
      "▁series": 813,
      "▁either": 814,
      "▁report": 815,
      "▁An": 816,
      "▁quite": 817,
      "▁law": 818,
      "7": 819,
      "▁history": 820,
      "▁living": 821,
      "▁content": 822,
      "▁almost": 823,
      "▁ago": 824,
      "▁move": 825,
      "▁offers": 826,
      "▁half": 827,
      "▁close": 828,
      "▁E": 829,
      "▁features": 830,
      "▁front": 831,
      "▁office": 832,
      "▁trying": 833,
      "r": 834,
      "▁technology": 835,
      "▁visit": 836,
      "▁everyone": 837,
      "▁training": 838,
      "▁further": 839,
      "▁/": 840,
      "▁questions": 841,
      "▁men": 842,
      "▁energy": 843,
      "▁City": 844,
      "▁p": 845,
      "▁US": 846,
      "▁various": 847,
      "▁tell": 848,
      "▁wanted": 849,
      "▁complete": 850,
      "▁J": 851,
      "▁major": 852,
      "▁child": 853,
      "▁taken": 854,
      "▁His": 855,
      "▁young": 856,
      "▁human": 857,
      "▁needed": 858,
      "▁added": 859,
      "▁simple": 860,
      "▁bring": 861,
      "▁games": 862,
      "▁Please": 863,
      "▁percent": 864,
      "▁e": 865,
      "▁view": 866,
      "▁State": 867,
      "▁result": 868,
      "▁especially": 869,
      "▁property": 870,
      "▁email": 871,
      "▁main": 872,
      "▁probably": 873,
      "▁beautiful": 874,
      "▁hope": 875,
      "▁performance": 876,
      "▁:": 877,
      "▁likely": 878,
      "▁Some": 879,
      "▁among": 880,
      "▁white": 881,
      "▁coming": 882,
      "▁third": 883,
      "▁size": 884,
      "▁works": 885,
      "▁required": 886,
      "▁customers": 887,
      "▁provides": 888,
      "▁issue": 889,
      "▁pretty": 890,
      "▁simply": 891,
      "▁2016": 892,
      "▁areas": 893,
      "10": 894,
      "▁management": 895,
      "▁key": 896,
      "▁T": 897,
      "▁writing": 898,
      "▁rather": 899,
      "▁question": 900,
      "▁however": 901,
      "▁National": 902,
      "▁May": 903,
      "▁professional": 904,
      "▁age": 905,
      "▁amount": 906,
      "▁deal": 907,
      "▁addition": 908,
      "▁R": 909,
      "▁present": 910,
      "▁points": 911,
      "▁matter": 912,
      "▁clear": 913,
      "▁account": 914,
      "▁party": 915,
      "▁P": 916,
      "▁lead": 917,
      "▁John": 918,
      "▁reason": 919,
      "▁York": 920,
      "▁asked": 921,
      "▁16": 922,
      "▁South": 923,
      "▁heart": 924,
      "▁air": 925,
      "▁period": 926,
      "▁By": 927,
      "▁isn": 928,
      "▁enjoy": 929,
      "▁turn": 930,
      "▁behind": 931,
      "▁phone": 932,
      "▁film": 933,
      "▁self": 934,
      "on": 935,
      "▁14": 936,
      "▁black": 937,
      "▁class": 938,
      "▁forward": 939,
      "▁18": 940,
      "▁near": 941,
      "▁nothing": 942,
      "year": 943,
      "▁Here": 944,
      "▁Mr": 945,
      "▁field": 946,
      "▁problems": 947,
      "g": 948,
      "▁provided": 949,
      "▁soon": 950,
      "▁Not": 951,
      "▁mean": 952,
      "▁#": 953,
      "▁outside": 954,
      "▁yourself": 955,
      "▁blog": 956,
      "▁meet": 957,
      "–": 958,
      "▁continue": 959,
      "▁50": 960,
      "▁re": 961,
      "00": 962,
      "▁insurance": 963,
      "▁World": 964,
      "▁etc": 965,
      "▁bad": 966,
      "▁web": 967,
      "▁held": 968,
      "▁24": 969,
      "▁according": 970,
      "▁security": 971,
      "▁designed": 972,
      "▁art": 973,
      "&": 974,
      "▁North": 975,
      "▁events": 976,
      "▁25": 977,
      "▁kids": 978,
      "▁staff": 979,
      "▁true": 980,
      "▁interest": 981,
      "x": 982,
      "B": 983,
      "▁news": 984,
      "▁role": 985,
      "▁strong": 986,
      "▁St": 987,
      "▁unique": 988,
      "▁13": 989,
      "▁address": 990,
      "▁certain": 991,
      "▁stay": 992,
      "▁increase": 993,
      "▁created": 994,
      "▁else": 995,
      "▁specific": 996,
      "▁running": 997,
      "▁couple": 998,
      "▁financial": 999,
      "▁ideas": 1000,
      "▁stop": 1001,
      "▁Trump": 1002,
      "▁choose": 1003,
      "▁search": 1004,
      "▁happy": 1005,
      "▁includes": 1006,
      "▁From": 1007,
      "▁natural": 1008,
      "▁style": 1009,
      "▁test": 1010,
      "▁Dr": 1011,
      "▁anyone": 1012,
      "▁inside": 1013,
      "▁March": 1014,
      "▁seems": 1015,
      "▁action": 1016,
      "▁States": 1017,
      "▁received": 1018,
      "▁common": 1019,
      "▁original": 1020,
      "▁leave": 1021,
      "▁position": 1022,
      "▁words": 1023,
      "▁ask": 1024,
      "up": 1025,
      "▁higher": 1026,
      "▁options": 1027,
      "▁changes": 1028,
      "▁ways": 1029,
      "▁article": 1030,
      "▁recent": 1031,
      "▁longer": 1032,
      "▁weeks": 1033,
      "▁member": 1034,
      "▁treatment": 1035,
      "▁software": 1036,
      "▁cannot": 1037,
      "▁version": 1038,
      "▁rate": 1039,
      "▁model": 1040,
      "▁ready": 1041,
      "▁general": 1042,
      "▁date": 1043,
      "▁build": 1044,
      "▁details": 1045,
      "▁takes": 1046,
      "▁total": 1047,
      "▁usually": 1048,
      "▁currently": 1049,
      "▁systems": 1050,
      "▁risk": 1051,
      "▁allow": 1052,
      "▁saw": 1053,
      "▁2015": 1054,
      "▁application": 1055,
      "▁individual": 1056,
      "▁shows": 1057,
      "▁similar": 1058,
      "▁School": 1059,
      "▁Then": 1060,
      "▁final": 1061,
      "▁opportunity": 1062,
      "▁Just": 1063,
      "▁upon": 1064,
      "▁ensure": 1065,
      "▁morning": 1066,
      "▁return": 1067,
      "▁potential": 1068,
      "▁receive": 1069,
      "▁particular": 1070,
      "▁Of": 1071,
      "▁talk": 1072,
      "▁six": 1073,
      "▁growth": 1074,
      "▁throughout": 1075,
      "30": 1076,
      "▁reading": 1077,
      "▁review": 1078,
      "▁win": 1079,
      "▁oil": 1080,
      "▁card": 1081,
      "▁education": 1082,
      "▁President": 1083,
      "▁!": 1084,
      "▁nice": 1085,
      "We": 1086,
      "▁focus": 1087,
      "9": 1088,
      "▁paper": 1089,
      "▁rest": 1090,
      "▁County": 1091,
      "▁file": 1092,
      "▁L": 1093,
      "▁private": 1094,
      "▁step": 1095,
      "▁via": 1096,
      "▁House": 1097,
      "▁G": 1098,
      "▁customer": 1099,
      "▁sense": 1100,
      "▁learning": 1101,
      "▁?": 1102,
      "▁worked": 1103,
      "▁recently": 1104,
      "▁practice": 1105,
      "▁store": 1106,
      "▁F": 1107,
      "▁table": 1108,
      "▁late": 1109,
      "es": 1110,
      "▁follow": 1111,
      "▁2019": 1112,
      "▁myself": 1113,
      "▁additional": 1114,
      "▁image": 1115,
      "▁books": 1116,
      "▁production": 1117,
      "▁knowledge": 1118,
      "▁built": 1119,
      "▁latest": 1120,
      "▁America": 1121,
      "▁meeting": 1122,
      "▁popular": 1123,
      "▁*": 1124,
      "▁lost": 1125,
      "▁quickly": 1126,
      "▁looks": 1127,
      "▁entire": 1128,
      "▁decision": 1129,
      "▁O": 1130,
      "▁lives": 1131,
      "▁policy": 1132,
      "▁users": 1133,
      "▁cover": 1134,
      "M": 1135,
      "▁items": 1136,
      "▁located": 1137,
      "▁cause": 1138,
      "▁hit": 1139,
      "▁included": 1140,
      "▁choice": 1141,
      "▁death": 1142,
      "▁user": 1143,
      "▁related": 1144,
      "▁instead": 1145,
      "▁material": 1146,
      "▁themselves": 1147,
      "▁K": 1148,
      "▁N": 1149,
      "▁wasn": 1150,
      "▁2014": 1151,
      "▁former": 1152,
      "▁players": 1153,
      "▁17": 1154,
      "▁international": 1155,
      "▁friend": 1156,
      "▁activities": 1157,
      "▁skin": 1158,
      "▁medical": 1159,
      "▁sales": 1160,
      "▁itself": 1161,
      "▁record": 1162,
      "▁color": 1163,
      "▁police": 1164,
      "k": 1165,
      "▁easily": 1166,
      "▁Why": 1167,
      "▁drive": 1168,
      "▁terms": 1169,
      "▁moment": 1170,
      "▁patients": 1171,
      "▁June": 1172,
      "based": 1173,
      "▁cut": 1174,
      "▁giving": 1175,
      "▁Center": 1176,
      "▁chance": 1177,
      "▁Friday": 1178,
      "▁difficult": 1179,
      "▁word": 1180,
      "▁became": 1181,
      "▁wide": 1182,
      "▁write": 1183,
      "▁Also": 1184,
      "▁playing": 1185,
      "+": 1186,
      "▁clients": 1187,
      "▁skills": 1188,
      "▁tax": 1189,
      "▁involved": 1190,
      "▁network": 1191,
      "▁environment": 1192,
      "T": 1193,
      "▁Can": 1194,
      "▁Thanks": 1195,
      "▁began": 1196,
      "▁code": 1197,
      "▁political": 1198,
      "▁felt": 1199,
      "▁national": 1200,
      "▁amazing": 1201,
      "▁summer": 1202,
      "▁parents": 1203,
      "▁x": 1204,
      "▁projects": 1205,
      "▁career": 1206,
      "c": 1207,
      "▁China": 1208,
      "▁option": 1209,
      "▁average": 1210,
      "▁ability": 1211,
      "▁road": 1212,
      "▁save": 1213,
      "▁computer": 1214,
      "▁lower": 1215,
      "▁decided": 1216,
      "▁April": 1217,
      "▁approach": 1218,
      "▁door": 1219,
      "▁woman": 1220,
      "▁remember": 1221,
      "▁UK": 1222,
      "▁written": 1223,
      "▁brand": 1224,
      "*": 1225,
      "▁countries": 1226,
      "▁extra": 1227,
      "▁success": 1228,
      "▁hold": 1229,
      "P": 1230,
      "▁worth": 1231,
      "▁conditions": 1232,
      "▁H": 1233,
      "▁student": 1234,
      "▁sound": 1235,
      "▁credit": 1236,
      "▁favorite": 1237,
      "▁goal": 1238,
      "▁impact": 1239,
      "▁town": 1240,
      "▁necessary": 1241,
      "▁goes": 1242,
      "▁shall": 1243,
      "▁First": 1244,
      "▁hair": 1245,
      "man": 1246,
      "▁board": 1247,
      "▁travel": 1248,
      "▁leading": 1249,
      "▁location": 1250,
      "▁attention": 1251,
      "▁modern": 1252,
      "▁sent": 1253,
      "▁plans": 1254,
      "▁gave": 1255,
      "▁expected": 1256,
      "▁interesting": 1257,
      "▁Most": 1258,
      "▁21": 1259,
      "▁West": 1260,
      "▁variety": 1261,
      "▁levels": 1262,
      "▁)": 1263,
      "▁standard": 1264,
      "▁loss": 1265,
      "▁saying": 1266,
      "▁red": 1267,
      "▁consider": 1268,
      "▁Park": 1269,
      "▁release": 1270,
      "▁source": 1271,
      "▁weight": 1272,
      "▁parts": 1273,
      "▁fast": 1274,
      "▁hear": 1275,
      "E": 1276,
      "▁July": 1277,
      "▁January": 1278,
      "▁allows": 1279,
      "▁India": 1280,
      "▁cases": 1281,
      "▁International": 1282,
      "▁collection": 1283,
      "▁subject": 1284,
      "b": 1285,
      "▁Day": 1286,
      "▁effective": 1287,
      "▁huge": 1288,
      "▁Even": 1289,
      "▁effect": 1290,
      "▁thinking": 1291,
      "▁2013": 1292,
      "▁stock": 1293,
      "▁costs": 1294,
      "▁safe": 1295,
      "▁sale": 1296,
      "▁40": 1297,
      "▁completely": 1298,
      "▁wrong": 1299,
      "▁improve": 1300,
      "K": 1301,
      "▁piece": 1302,
      "▁groups": 1303,
      "▁Many": 1304,
      "▁marketing": 1305,
      "▁providing": 1306,
      "▁global": 1307,
      "▁purchase": 1308,
      "▁programs": 1309,
      "▁Don": 1310,
      "▁land": 1311,
      "▁hands": 1312,
      "▁played": 1313,
      "▁watch": 1314,
      "▁released": 1315,
      "▁19": 1316,
      "▁section": 1317,
      "▁significant": 1318,
      "en": 1319,
      "▁court": 1320,
      "▁link": 1321,
      "▁knew": 1322,
      "▁daily": 1323,
      "▁equipment": 1324,
      "It": 1325,
      "▁Inc": 1326,
      "▁solution": 1327,
      "▁relationship": 1328,
      "▁seem": 1329,
      "▁answer": 1330,
      "▁heard": 1331,
      "▁device": 1332,
      "▁Sunday": 1333,
      "▁legal": 1334,
      "▁rights": 1335,
      "▁London": 1336,
      "▁multiple": 1337,
      "▁born": 1338,
      "▁send": 1339,
      "▁fit": 1340,
      "▁TV": 1341,
      "▁English": 1342,
      "▁safety": 1343,
      "▁highly": 1344,
      "▁Saturday": 1345,
      "▁mother": 1346,
      "▁clean": 1347,
      "▁pre": 1348,
      "R": 1349,
      "▁2012": 1350,
      "▁fire": 1351,
      "▁box": 1352,
      "▁ground": 1353,
      "▁Google": 1354,
      "▁picture": 1355,
      "▁towards": 1356,
      "▁Christmas": 1357,
      "▁walk": 1358,
      "▁sometimes": 1359,
      "▁gives": 1360,
      "▁types": 1361,
      "▁track": 1362,
      "▁click": 1363,
      "▁situation": 1364,
      "▁eyes": 1365,
      "▁More": 1366,
      "▁tried": 1367,
      "▁September": 1368,
      "▁Well": 1369,
      "▁October": 1370,
      "old": 1371,
      "▁directly": 1372,
      "▁Department": 1373,
      "▁December": 1374,
      "▁materials": 1375,
      "▁co": 1376,
      "▁resources": 1377,
      "▁published": 1378,
      "▁led": 1379,
      "▁mobile": 1380,
      "▁looked": 1381,
      "▁benefits": 1382,
      "▁hot": 1383,
      "▁term": 1384,
      "▁himself": 1385,
      "▁center": 1386,
      "▁turned": 1387,
      "▁Since": 1388,
      "▁feature": 1389,
      "▁excellent": 1390,
      "▁Thank": 1391,
      "▁starting": 1392,
      "▁Home": 1393,
      "▁fall": 1394,
      "▁San": 1395,
      "▁Are": 1396,
      "▁floor": 1397,
      "an": 1398,
      "▁fine": 1399,
      "▁trip": 1400,
      "▁Facebook": 1401,
      "▁language": 1402,
      "▁considered": 1403,
      "▁previous": 1404,
      "▁wall": 1405,
      "l": 1406,
      "▁V": 1407,
      "▁interested": 1408,
      "▁request": 1409,
      "▁app": 1410,
      "▁reported": 1411,
      "▁digital": 1412,
      "▁November": 1413,
      "▁Once": 1414,
      "▁tools": 1415,
      "▁organization": 1416,
      "▁nature": 1417,
      "▁High": 1418,
      "▁fully": 1419,
      "▁Monday": 1420,
      "▁movie": 1421,
      "▁Co": 1422,
      "▁analysis": 1423,
      "▁message": 1424,
      "▁sign": 1425,
      "▁images": 1426,
      "▁pain": 1427,
      "▁prices": 1428,
      "▁brought": 1429,
      "▁posted": 1430,
      "▁reach": 1431,
      "12": 1432,
      "▁happen": 1433,
      "▁Or": 1434,
      "20": 1435,
      "▁base": 1436,
      "▁wish": 1437,
      "▁response": 1438,
      "▁feeling": 1439,
      "▁spent": 1440,
      "▁son": 1441,
      "▁war": 1442,
      "▁planning": 1443,
      "▁exactly": 1444,
      "time": 1445,
      "▁spend": 1446,
      "▁Great": 1447,
      "▁Let": 1448,
      "▁require": 1449,
      "▁definitely": 1450,
      "▁stuff": 1451,
      "▁blood": 1452,
      "▁positive": 1453,
      "▁developed": 1454,
      "▁develop": 1455,
      "▁photo": 1456,
      "▁stand": 1457,
      "▁moving": 1458,
      "▁method": 1459,
      "▁22": 1460,
      "▁maybe": 1461,
      "▁W": 1462,
      "▁trade": 1463,
      "▁break": 1464,
      "▁finally": 1465,
      "▁limited": 1466,
      "▁Get": 1467,
      "▁physical": 1468,
      "▁pick": 1469,
      "▁character": 1470,
      "▁traditional": 1471,
      "▁player": 1472,
      "▁successful": 1473,
      "G": 1474,
      "▁certainly": 1475,
      "▁hour": 1476,
      "▁X": 1477,
      "▁difference": 1478,
      "▁growing": 1479,
      "▁sites": 1480,
      "▁regular": 1481,
      "▁California": 1482,
      "▁baby": 1483,
      "▁stage": 1484,
      "▁photos": 1485,
      "▁gets": 1486,
      "▁paid": 1487,
      "▁region": 1488,
      "▁round": 1489,
      "F": 1490,
      "▁kitchen": 1491,
      "p": 1492,
      "▁ones": 1493,
      "▁machine": 1494,
      "▁wait": 1495,
      "▁wonderful": 1496,
      "▁stories": 1497,
      "▁Be": 1498,
      "▁August": 1499,
      "▁individuals": 1500,
      "▁White": 1501,
      "L": 1502,
      "▁father": 1503,
      ">": 1504,
      "▁economic": 1505,
      "▁activity": 1506,
      "▁understanding": 1507,
      "▁vehicle": 1508,
      "▁green": 1509,
      "=": 1510,
      "▁match": 1511,
      "▁creating": 1512,
      "▁2011": 1513,
      "▁apply": 1514,
      "▁construction": 1515,
      "▁Health": 1516,
      "▁pressure": 1517,
      "▁bed": 1518,
      "▁evidence": 1519,
      "▁loved": 1520,
      "▁note": 1521,
      "▁weekend": 1522,
      "▁begin": 1523,
      "▁2010": 1524,
      "ers": 1525,
      "▁feet": 1526,
      "▁solutions": 1527,
      "▁campaign": 1528,
      "▁text": 1529,
      "▁helps": 1530,
      "▁screen": 1531,
      "▁earlier": 1532,
      "▁nearly": 1533,
      "15": 1534,
      "▁David": 1535,
      "▁places": 1536,
      "h": 1537,
      "▁quick": 1538,
      "▁deep": 1539,
      "▁|": 1540,
      "▁charge": 1541,
      "▁Free": 1542,
      "▁Group": 1543,
      "al": 1544,
      "▁expect": 1545,
      "▁requirements": 1546,
      "▁beginning": 1547,
      "▁statement": 1548,
      "▁families": 1549,
      "▁s": 1550,
      "▁culture": 1551,
      "▁Black": 1552,
      "▁wife": 1553,
      "11": 1554,
      "▁February": 1555,
      "▁Street": 1556,
      "▁businesses": 1557,
      "▁Canada": 1558,
      "▁European": 1559,
      "▁dog": 1560,
      "▁Thursday": 1561,
      "▁Service": 1562,
      "▁effects": 1563,
      "▁al": 1564,
      "▁internet": 1565,
      "▁+": 1566,
      "▁applications": 1567,
      "▁employees": 1568,
      "▁shown": 1569,
      "▁cool": 1570,
      "▁function": 1571,
      "▁eye": 1572,
      "▁couldn": 1573,
      "▁president": 1574,
      "▁college": 1575,
      "▁fresh": 1576,
      "▁announced": 1577,
      "▁investment": 1578,
      "▁beyond": 1579,
      "of": 1580,
      "▁damage": 1581,
      "▁healthy": 1582,
      "▁race": 1583,
      "▁speed": 1584,
      "▁alone": 1585,
      "▁Tuesday": 1586,
      "▁immediately": 1587,
      "▁bar": 1588,
      "▁Although": 1589,
      "▁moved": 1590,
      "▁benefit": 1591,
      "▁increased": 1592,
      "▁goals": 1593,
      "▁changed": 1594,
      "▁Yes": 1595,
      "▁Washington": 1596,
      "▁wrote": 1597,
      "▁THE": 1598,
      "▁basis": 1599,
      "▁23": 1600,
      "▁particularly": 1601,
      "▁purpose": 1602,
      "▁states": 1603,
      "▁opportunities": 1604,
      "▁talking": 1605,
      "st": 1606,
      "▁shot": 1607,
      "▁Jesus": 1608,
      "N": 1609,
      "▁truly": 1610,
      "▁Europe": 1611,
      "▁hotel": 1612,
      "▁commercial": 1613,
      "▁allowed": 1614,
      "▁billion": 1615,
      "▁although": 1616,
      "▁East": 1617,
      "▁grow": 1618,
      "▁offered": 1619,
      "▁Her": 1620,
      "▁church": 1621,
      "▁effort": 1622,
      "▁Wednesday": 1623,
      "▁rates": 1624,
      "▁happened": 1625,
      "▁met": 1626,
      "▁60": 1627,
      "as": 1628,
      "▁overall": 1629,
      "▁Each": 1630,
      "▁pictures": 1631,
      "it": 1632,
      "▁pass": 1633,
      "▁storage": 1634,
      "▁associated": 1635,
      "▁active": 1636,
      "▁tool": 1637,
      "▁shop": 1638,
      "▁reports": 1639,
      "▁platform": 1640,
      "▁heat": 1641,
      "▁sell": 1642,
      "▁serve": 1643,
      "▁thanks": 1644,
      "▁ahead": 1645,
      "▁join": 1646,
      "▁vote": 1647,
      "▁client": 1648,
      "▁entry": 1649,
      "▁title": 1650,
      "▁girl": 1651,
      "▁Best": 1652,
      "▁guide": 1653,
      "▁wants": 1654,
      "▁un": 1655,
      "▁offering": 1656,
      "▁schools": 1657,
      "▁official": 1658,
      "▁compared": 1659,
      "▁easier": 1660,
      "▁whose": 1661,
      "▁avoid": 1662,
      "▁According": 1663,
      "▁double": 1664,
      "▁Because": 1665,
      "▁helped": 1666,
      "▁sort": 1667,
      "▁British": 1668,
      "▁pages": 1669,
      "▁direct": 1670,
      "▁basic": 1671,
      "▁eat": 1672,
      "▁recommend": 1673,
      "▁claim": 1674,
      "▁died": 1675,
      "▁College": 1676,
      "▁cash": 1677,
      "▁advice": 1678,
      "▁Company": 1679,
      "▁setting": 1680,
      "▁military": 1681,
      "▁disease": 1682,
      "@": 1683,
      "▁reduce": 1684,
      "▁rules": 1685,
      "▁middle": 1686,
      "▁numbers": 1687,
      "▁anti": 1688,
      "▁display": 1689,
      "▁degree": 1690,
      "▁touch": 1691,
      "▁unit": 1692,
      "▁science": 1693,
      "▁surface": 1694,
      "▁firm": 1695,
      "▁plant": 1696,
      "▁normal": 1697,
      "▁gas": 1698,
      "▁gone": 1699,
      "▁Australia": 1700,
      "▁Click": 1701,
      "O": 1702,
      "▁studies": 1703,
      "▁band": 1704,
      "▁largest": 1705,
      "▁condition": 1706,
      "▁blue": 1707,
      "▁followed": 1708,
      "▁supply": 1709,
      "▁song": 1710,
      "▁force": 1711,
      "▁regarding": 1712,
      "▁gold": 1713,
      "▁comment": 1714,
      "▁Today": 1715,
      "▁Court": 1716,
      "▁During": 1717,
      "▁voice": 1718,
      "▁challenge": 1719,
      "▁seven": 1720,
      "▁serious": 1721,
      "▁Paul": 1722,
      "▁finish": 1723,
      "▁Services": 1724,
      "▁reasons": 1725,
      "▁devices": 1726,
      "▁act": 1727,
      "▁lines": 1728,
      "▁Q": 1729,
      "▁structure": 1730,
      "▁gift": 1731,
      "▁powerful": 1732,
      "▁perhaps": 1733,
      "▁See": 1734,
      "▁served": 1735,
      "▁28": 1736,
      "▁teams": 1737,
      "▁lots": 1738,
      "▁complex": 1739,
      "▁comments": 1740,
      "▁bottom": 1741,
      "▁weather": 1742,
      "▁uses": 1743,
      "▁responsible": 1744,
      "▁husband": 1745,
      "▁protect": 1746,
      "▁miles": 1747,
      "▁annual": 1748,
      "▁James": 1749,
      "▁produce": 1750,
      "▁glass": 1751,
      "▁War": 1752,
      "▁budget": 1753,
      "▁finished": 1754,
      "▁population": 1755,
      "▁kept": 1756,
      "▁agree": 1757,
      "▁sold": 1758,
      "▁existing": 1759,
      "▁26": 1760,
      "▁greater": 1761,
      "▁cold": 1762,
      "▁Internet": 1763,
      "am": 1764,
      "▁Business": 1765,
      "▁income": 1766,
      "▁aren": 1767,
      "▁Have": 1768,
      "▁seeing": 1769,
      "▁et": 1770,
      "▁cancer": 1771,
      "▁useful": 1772,
      "H": 1773,
      "▁experienced": 1774,
      "▁window": 1775,
      "▁extremely": 1776,
      "▁dark": 1777,
      "▁prior": 1778,
      "▁delivery": 1779,
      "▁Council": 1780,
      "▁Re": 1781,
      "▁target": 1782,
      "▁plus": 1783,
      "▁named": 1784,
      "▁driving": 1785,
      "▁director": 1786,
      "▁wedding": 1787,
      "▁club": 1788,
      "▁helping": 1789,
      "▁fans": 1790,
      "▁haven": 1791,
      "▁People": 1792,
      "▁highest": 1793,
      "50": 1794,
      "▁•": 1795,
      "▁French": 1796,
      "▁completed": 1797,
      "▁Good": 1798,
      "▁patient": 1799,
      "▁comfortable": 1800,
      "▁fight": 1801,
      "▁opening": 1802,
      "nd": 1803,
      "▁wouldn": 1804,
      "▁figure": 1805,
      "▁author": 1806,
      "▁movement": 1807,
      "▁strategy": 1808,
      "▁remain": 1809,
      "▁quarter": 1810,
      "▁Another": 1811,
      "▁2009": 1812,
      "▁Red": 1813,
      "$": 1814,
      "▁attack": 1815,
      "▁daughter": 1816,
      "▁2008": 1817,
      "▁coffee": 1818,
      "▁federal": 1819,
      "▁ball": 1820,
      "▁larger": 1821,
      "▁camera": 1822,
      "▁appear": 1823,
      "▁27": 1824,
      "▁appropriate": 1825,
      "▁onto": 1826,
      "▁efforts": 1827,
      "▁speak": 1828,
      "▁Research": 1829,
      "▁essential": 1830,
      "▁bank": 1831,
      "▁spot": 1832,
      "▁passed": 1833,
      "▁Association": 1834,
      "▁creative": 1835,
      "▁models": 1836,
      "▁letter": 1837,
      "▁lack": 1838,
      "▁established": 1839,
      "▁leaders": 1840,
      "▁Michael": 1841,
      "▁=": 1842,
      "▁prevent": 1843,
      "▁files": 1844,
      "▁tour": 1845,
      "▁society": 1846,
      "▁wood": 1847,
      "▁shared": 1848,
      "▁General": 1849,
      "▁super": 1850,
      "▁jobs": 1851,
      "▁Two": 1852,
      "▁connection": 1853,
      "▁actual": 1854,
      "▁characters": 1855,
      "▁protection": 1856,
      "▁selection": 1857,
      "▁straight": 1858,
      "▁learned": 1859,
      "▁guys": 1860,
      "▁generally": 1861,
      "▁primary": 1862,
      "▁guy": 1863,
      "▁News": 1864,
      "▁Other": 1865,
      "▁continued": 1866,
      "us": 1867,
      "▁engine": 1868,
      "▁biggest": 1869,
      "▁methods": 1870,
      "▁http": 1871,
      "▁Office": 1872,
      "▁sleep": 1873,
      "▁cell": 1874,
      "▁Make": 1875,
      "▁Who": 1876,
      "▁drug": 1877,
      "▁Act": 1878,
      "▁finding": 1879,
      "▁century": 1880,
      "▁sharing": 1881,
      "▁evening": 1882,
      "25": 1883,
      "▁steps": 1884,
      "▁Windows": 1885,
      "▁carry": 1886,
      "▁Will": 1887,
      "▁pieces": 1888,
      "▁Texas": 1889,
      "is": 1890,
      "▁cells": 1891,
      "f": 1892,
      "▁leader": 1893,
      "▁Church": 1894,
      "z": 1895,
      "▁notice": 1896,
      "▁described": 1897,
      "▁album": 1898,
      "▁Last": 1899,
      "day": 1900,
      "▁reality": 1901,
      "co": 1902,
      "▁trust": 1903,
      "▁payment": 1904,
      "▁item": 1905,
      "▁eight": 1906,
      "▁owner": 1907,
      "▁cards": 1908,
      "▁capital": 1909,
      "▁Board": 1910,
      "▁covered": 1911,
      "▁achieve": 1912,
      "▁King": 1913,
      "▁Like": 1914,
      "▁traffic": 1915,
      "▁enter": 1916,
      "▁m": 1917,
      "▁Chinese": 1918,
      "▁workers": 1919,
      "▁produced": 1920,
      "▁older": 1921,
      "▁Use": 1922,
      "▁critical": 1923,
      "▁press": 1924,
      "▁waiting": 1925,
      "▁warm": 1926,
      "▁heavy": 1927,
      "▁therefore": 1928,
      "▁wear": 1929,
      "▁journey": 1930,
      "▁d": 1931,
      "▁opened": 1932,
      "▁economy": 1933,
      "▁Check": 1934,
      "▁demand": 1935,
      "▁respect": 1936,
      "▁reviews": 1937,
      "▁showed": 1938,
      "▁memory": 1939,
      "▁partner": 1940,
      "▁t": 1941,
      "▁v": 1942,
      "▁cross": 1943,
      "▁@": 1944,
      "▁whatever": 1945,
      "▁button": 1946,
      "▁31": 1947,
      "▁sports": 1948,
      "▁ideal": 1949,
      "able": 1950,
      "▁advantage": 1951,
      "▁server": 1952,
      "▁tree": 1953,
      "▁drop": 1954,
      "▁toward": 1955,
      "▁requires": 1956,
      "▁conference": 1957,
      "▁placed": 1958,
      "▁brain": 1959,
      "▁host": 1960,
      "▁Love": 1961,
      "▁contract": 1962,
      "▁remove": 1963,
      "u": 1964,
      "www": 1965,
      "▁dry": 1966,
      "no": 1967,
      "▁Go": 1968,
      "▁custom": 1969,
      "▁poor": 1970,
      "▁select": 1971,
      "▁scene": 1972,
      "▁girls": 1973,
      "▁values": 1974,
      "W": 1975,
      "▁audience": 1976,
      "▁views": 1977,
      "▁estate": 1978,
      "▁mentioned": 1979,
      "▁status": 1980,
      "▁update": 1981,
      "▁Life": 1982,
      "▁direction": 1983,
      "16": 1984,
      "▁truth": 1985,
      "▁driver": 1986,
      "▁steel": 1987,
      "▁correct": 1988,
      "V": 1989,
      "▁balance": 1990,
      "▁England": 1991,
      "▁presented": 1992,
      "▁Florida": 1993,
      "▁Air": 1994,
      "▁Art": 1995,
      "▁parties": 1996,
      "▁handle": 1997,
      "▁path": 1998,
      "▁keeping": 1999,
      "▁multi": 2000,
      "▁communication": 2001,
      "▁homes": 2002,
      "▁determine": 2003,
      "▁remains": 2004,
      "▁happens": 2005,
      "▁maintain": 2006,
      "term": 2007,
      "▁background": 2008,
      "▁pool": 2009,
      "▁park": 2010,
      "▁street": 2011,
      "▁shape": 2012,
      "▁Apple": 2013,
      "▁winter": 2014,
      "▁dead": 2015,
      "▁adding": 2016,
      "▁shopping": 2017,
      "▁teaching": 2018,
      "▁elements": 2019,
      "▁cars": 2020,
      "ness": 2021,
      "▁thank": 2022,
      "▁ten": 2023,
      "▁Management": 2024,
      "▁La": 2025,
      "▁ended": 2026,
      "▁competition": 2027,
      "▁Lord": 2028,
      "▁session": 2029,
      "▁n": 2030,
      "▁bought": 2031,
      "▁metal": 2032,
      "▁ice": 2033,
      "▁tips": 2034,
      "▁organizations": 2035,
      "▁Green": 2036,
      "▁Africa": 2037,
      "▁lose": 2038,
      "▁standards": 2039,
      "▁factors": 2040,
      "▁star": 2041,
      "▁leaving": 2042,
      "▁29": 2043,
      "▁caused": 2044,
      "▁majority": 2045,
      "▁holiday": 2046,
      "▁contains": 2047,
      "18": 2048,
      "▁operations": 2049,
      "▁seemed": 2050,
      "▁aware": 2051,
      "▁soft": 2052,
      "▁plenty": 2053,
      "▁Indian": 2054,
      "▁Road": 2055,
      "▁experiences": 2056,
      "▁Club": 2057,
      "▁garden": 2058,
      "▁manage": 2059,
      "▁De": 2060,
      "▁Christ": 2061,
      "▁developing": 2062,
      "▁Every": 2063,
      "▁technical": 2064,
      "▁discuss": 2065,
      "▁fan": 2066,
      "▁strength": 2067,
      "▁selected": 2068,
      "▁showing": 2069,
      "▁challenges": 2070,
      "▁claims": 2071,
      "▁station": 2072,
      "▁communities": 2073,
      "▁deliver": 2074,
      "▁furniture": 2075,
      "▁officials": 2076,
      "▁Over": 2077,
      "▁calls": 2078,
      "▁registered": 2079,
      "▁nation": 2080,
      "▁separate": 2081,
      "▁fish": 2082,
      "org": 2083,
      "▁wine": 2084,
      "▁foreign": 2085,
      "pm": 2086,
      "X": 2087,
      "▁gain": 2088,
      "▁welcome": 2089,
      "▁thus": 2090,
      "▁perform": 2091,
      "▁minute": 2092,
      "▁schedule": 2093,
      "▁meaning": 2094,
      "▁block": 2095,
      "▁hospital": 2096,
      "▁2007": 2097,
      "▁coverage": 2098,
      "▁Take": 2099,
      "▁closed": 2100,
      "▁agreement": 2101,
      "for": 2102,
      "free": 2103,
      "▁copy": 2104,
      "▁links": 2105,
      "▁watching": 2106,
      "▁raised": 2107,
      "▁>": 2108,
      "▁interview": 2109,
      "▁buying": 2110,
      "▁exercise": 2111,
      "▁shares": 2112,
      "▁thousands": 2113,
      "▁becoming": 2114,
      "▁Where": 2115,
      "▁decide": 2116,
      "▁clearly": 2117,
      "▁print": 2118,
      "▁sun": 2119,
      "▁names": 2120,
      "▁listed": 2121,
      "▁Bank": 2122,
      "▁Institute": 2123,
      "▁central": 2124,
      "▁Twitter": 2125,
      "▁testing": 2126,
      "▁senior": 2127,
      "▁despite": 2128,
      "▁forms": 2129,
      "▁capacity": 2130,
      "▁runs": 2131,
      "▁Christian": 2132,
      "▁concept": 2133,
      "▁smaller": 2134,
      "▁Their": 2135,
      "▁helpful": 2136,
      "▁otherwise": 2137,
      "▁residents": 2138,
      "®": 2139,
      "▁manager": 2140,
      "▁classes": 2141,
      "▁independent": 2142,
      "mm": 2143,
      "▁Any": 2144,
      "▁funds": 2145,
      "▁sit": 2146,
      "▁Both": 2147,
      "▁stress": 2148,
      "▁prepared": 2149,
      "▁waste": 2150,
      "▁mission": 2151,
      "▁bill": 2152,
      "▁80": 2153,
      "▁previously": 2154,
      "▁flow": 2155,
      "▁90": 2156,
      "▁River": 2157,
      "▁secure": 2158,
      "▁becomes": 2159,
      "14": 2160,
      "▁operating": 2161,
      "▁spring": 2162,
      "▁sounds": 2163,
      "▁sea": 2164,
      "▁b": 2165,
      "▁friendly": 2166,
      "▁famous": 2167,
      "▁dedicated": 2168,
      "▁Design": 2169,
      "▁absolutely": 2170,
      "▁advanced": 2171,
      "▁sweet": 2172,
      "▁fill": 2173,
      "▁rock": 2174,
      "▁sources": 2175,
      "▁solid": 2176,
      "▁spending": 2177,
      "▁killed": 2178,
      "v": 2179,
      "rd": 2180,
      "▁la": 2181,
      "▁reached": 2182,
      "▁loan": 2183,
      "▁train": 2184,
      "▁posts": 2185,
      "▁managed": 2186,
      "▁election": 2187,
      "▁owners": 2188,
      "▁fear": 2189,
      "▁sector": 2190,
      "▁Pro": 2191,
      "▁presence": 2192,
      "▁relevant": 2193,
      "▁appears": 2194,
      "▁dinner": 2195,
      "▁facilities": 2196,
      "▁mid": 2197,
      "▁changing": 2198,
      "▁excited": 2199,
      "▁Big": 2200,
      "▁progress": 2201,
      "▁Lake": 2202,
      "▁experts": 2203,
      "▁task": 2204,
      "▁classic": 2205,
      "▁properties": 2206,
      "like": 2207,
      "▁bag": 2208,
      "13": 2209,
      "▁Time": 2210,
      "▁repair": 2211,
      "▁knows": 2212,
      "▁restaurant": 2213,
      "▁mix": 2214,
      "▁mostly": 2215,
      "▁attempt": 2216,
      "▁numerous": 2217,
      "▁guess": 2218,
      "▁proper": 2219,
      "▁walking": 2220,
      "▁opinion": 2221,
      "▁USA": 2222,
      "▁enjoyed": 2223,
      "▁ride": 2224,
      "▁transfer": 2225,
      "ie": 2226,
      "▁records": 2227,
      "▁agency": 2228,
      "▁Whether": 2229,
      "▁thoughts": 2230,
      "▁length": 2231,
      "▁animals": 2232,
      "▁core": 2233,
      "▁administration": 2234,
      "▁George": 2235,
      "▁cleaning": 2236,
      "▁putting": 2237,
      "▁meant": 2238,
      "▁plants": 2239,
      "▁continues": 2240,
      "▁rich": 2241,
      "▁football": 2242,
      "▁operation": 2243,
      "▁techniques": 2244,
      "▁artist": 2245,
      "▁Mark": 2246,
      "▁temperature": 2247,
      "▁Science": 2248,
      "▁distance": 2249,
      "▁colors": 2250,
      "17": 2251,
      "J": 2252,
      "▁awesome": 2253,
      "▁combination": 2254,
      "▁actions": 2255,
      "This": 2256,
      "▁beauty": 2257,
      "▁Find": 2258,
      "▁trading": 2259,
      "▁species": 2260,
      "▁Amazon": 2261,
      "▁initial": 2262,
      "▁assist": 2263,
      "▁performed": 2264,
      "▁alternative": 2265,
      "▁Government": 2266,
      "▁die": 2267,
      "one": 2268,
      "▁map": 2269,
      "▁topic": 2270,
      "▁score": 2271,
      "▁accept": 2272,
      "100": 2273,
      "▁teacher": 2274,
      "▁eventually": 2275,
      "You": 2276,
      "▁Web": 2277,
      "▁doctor": 2278,
      "▁Education": 2279,
      "▁joined": 2280,
      "▁expensive": 2281,
      "▁focused": 2282,
      "▁pair": 2283,
      "▁70": 2284,
      "▁c": 2285,
      "▁returned": 2286,
      "▁injury": 2287,
      "▁package": 2288,
      "▁Oh": 2289,
      "▁200": 2290,
      "line": 2291,
      "▁Year": 2292,
      "▁peace": 2293,
      "▁policies": 2294,
      "▁IT": 2295,
      "▁connected": 2296,
      "▁leadership": 2297,
      "▁Press": 2298,
      "▁Director": 2299,
      "▁Online": 2300,
      "▁documents": 2301,
      "▁discussion": 2302,
      "▁Bay": 2303,
      "▁selling": 2304,
      "▁coach": 2305,
      "▁Before": 2306,
      "▁department": 2307,
      "▁forget": 2308,
      "▁trial": 2309,
      "▁rule": 2310,
      "▁filled": 2311,
      "▁applied": 2312,
      "▁identify": 2313,
      "▁explore": 2314,
      "▁cheap": 2315,
      "▁Y": 2316,
      "▁foot": 2317,
      "▁Police": 2318,
      "by": 2319,
      "▁slightly": 2320,
      "▁Law": 2321,
      "▁faith": 2322,
      "▁Maybe": 2323,
      "▁German": 2324,
      "▁appeared": 2325,
      "▁laws": 2326,
      "▁Open": 2327,
      "▁seat": 2328,
      "▁Committee": 2329,
      "▁negative": 2330,
      "▁asking": 2331,
      "▁Central": 2332,
      "▁fashion": 2333,
      "▁beach": 2334,
      "▁fair": 2335,
      "▁unless": 2336,
      "▁reference": 2337,
      "▁mental": 2338,
      "▁units": 2339,
      "▁videos": 2340,
      "▁funding": 2341,
      "▁eating": 2342,
      "▁award": 2343,
      "▁professionals": 2344,
      "▁vision": 2345,
      "▁signed": 2346,
      "▁Man": 2347,
      "▁practices": 2348,
      "▁scale": 2349,
      "▁cities": 2350,
      "▁starts": 2351,
      "▁comfort": 2352,
      "▁detail": 2353,
      "▁dream": 2354,
      "out": 2355,
      "▁Those": 2356,
      "▁Minister": 2357,
      "▁hearing": 2358,
      "▁decisions": 2359,
      "▁Post": 2360,
      "▁winning": 2361,
      "▁corner": 2362,
      "▁edge": 2363,
      "▁slow": 2364,
      "▁Island": 2365,
      "▁guests": 2366,
      "▁missing": 2367,
      "▁en": 2368,
      "▁visitors": 2369,
      "▁Only": 2370,
      "▁generation": 2371,
      "▁concerns": 2372,
      "▁Add": 2373,
      "▁miss": 2374,
      "▁theme": 2375,
      "▁increasing": 2376,
      "▁League": 2377,
      "▁France": 2378,
      "▁suggest": 2379,
      "▁maximum": 2380,
      "▁markets": 2381,
      "▁rooms": 2382,
      "▁fee": 2383,
      "▁Public": 2384,
      "▁error": 2385,
      "▁sitting": 2386,
      "▁brother": 2387,
      "▁boy": 2388,
      "▁rise": 2389,
      "▁expert": 2390,
      "▁fantastic": 2391,
      "▁Japan": 2392,
      "▁teachers": 2393,
      "▁corporate": 2394,
      "▁exchange": 2395,
      "▁frame": 2396,
      "▁songs": 2397,
      "▁II": 2398,
      "▁influence": 2399,
      "▁AND": 2400,
      "at": 2401,
      "▁holding": 2402,
      "▁totally": 2403,
      "▁2006": 2404,
      "▁Next": 2405,
      "▁maintenance": 2406,
      "▁approximately": 2407,
      "▁minimum": 2408,
      "▁allowing": 2409,
      "▁married": 2410,
      "▁District": 2411,
      "▁artists": 2412,
      "▁Israel": 2413,
      "▁Party": 2414,
      "▁essay": 2415,
      "▁female": 2416,
      "▁plastic": 2417,
      "▁busy": 2418,
      "▁document": 2419,
      "▁bathroom": 2420,
      "▁removed": 2421,
      "▁processes": 2422,
      "▁leaves": 2423,
      "▁climate": 2424,
      "▁Russia": 2425,
      "▁exciting": 2426,
      "▁Hall": 2427,
      "▁sets": 2428,
      "500": 2429,
      "▁Smith": 2430,
      "▁relationships": 2431,
      "▁Union": 2432,
      "▁Read": 2433,
      "▁medium": 2434,
      "▁treat": 2435,
      "▁Me": 2436,
      "▁debt": 2437,
      "▁afternoon": 2438,
      "▁Germany": 2439,
      "▁Obama": 2440,
      "▁possibly": 2441,
      "▁radio": 2442,
      "▁spread": 2443,
      "▁bus": 2444,
      "▁Star": 2445,
      "▁facility": 2446,
      "▁calling": 2447,
      "▁taste": 2448,
      "▁brings": 2449,
      "▁wind": 2450,
      "▁Note": 2451,
      "▁explain": 2452,
      "▁35": 2453,
      "▁www": 2454,
      "▁flat": 2455,
      "▁south": 2456,
      "▁manner": 2457,
      "▁2000": 2458,
      "▁Russian": 2459,
      "▁Chicago": 2460,
      "▁responsibility": 2461,
      "▁whom": 2462,
      "▁Ltd": 2463,
      "▁lived": 2464,
      "▁Blue": 2465,
      "▁processing": 2466,
      "▁Does": 2467,
      "▁Foundation": 2468,
      "▁smart": 2469,
      "▁info": 2470,
      "▁trees": 2471,
      "▁assistance": 2472,
      "▁menu": 2473,
      "▁connect": 2474,
      "▁format": 2475,
      "▁pattern": 2476,
      "▁drink": 2477,
      "▁detailed": 2478,
      "▁Super": 2479,
      "▁north": 2480,
      "▁volume": 2481,
      "▁Top": 2482,
      "▁lovely": 2483,
      "▁committed": 2484,
      "▁investigation": 2485,
      "▁500": 2486,
      "▁OF": 2487,
      "▁except": 2488,
      "▁yes": 2489,
      "▁seconds": 2490,
      "▁Social": 2491,
      "▁Bill": 2492,
      "▁Data": 2493,
      "▁stone": 2494,
      "▁doubt": 2495,
      "▁centre": 2496,
      "▁properly": 2497,
      "▁nor": 2498,
      "▁forces": 2499,
      "▁vehicles": 2500,
      "▁notes": 2501,
      "▁articles": 2502,
      "▁Development": 2503,
      "▁proud": 2504,
      "▁net": 2505,
      "▁failed": 2506,
      "▁stores": 2507,
      "▁internal": 2508,
      "▁category": 2509,
      "▁ourselves": 2510,
      "▁serving": 2511,
      "▁raise": 2512,
      "▁Al": 2513,
      "In": 2514,
      "▁Music": 2515,
      "▁fees": 2516,
      "▁Power": 2517,
      "▁typically": 2518,
      "▁Robert": 2519,
      "▁measure": 2520,
      "▁charges": 2521,
      "▁panel": 2522,
      "▁African": 2523,
      "▁Western": 2524,
      "▁arrived": 2525,
      "▁district": 2526,
      "▁recommended": 2527,
      "▁combined": 2528,
      "▁launch": 2529,
      "▁ran": 2530,
      "▁l": 2531,
      "▁fourth": 2532,
      "▁updated": 2533,
      "▁discovered": 2534,
      "▁cent": 2535,
      "▁advance": 2536,
      "▁wonder": 2537,
      "▁Book": 2538,
      "▁ship": 2539,
      "▁conversation": 2540,
      "▁flight": 2541,
      "▁specifically": 2542,
      "▁environmental": 2543,
      "▁realize": 2544,
      "▁animal": 2545,
      "▁cultural": 2546,
      "▁outdoor": 2547,
      "▁Z": 2548,
      "▁master": 2549,
      "[": 2550,
      "▁worry": 2551,
      "▁instance": 2552,
      "▁bedroom": 2553,
      "40": 2554,
      "▁mine": 2555,
      "▁Congress": 2556,
      "▁Peter": 2557,
      "▁importance": 2558,
      "▁designs": 2559,
      "▁supported": 2560,
      "▁System": 2561,
      "▁Valley": 2562,
      "▁auto": 2563,
      "▁stopped": 2564,
      "▁behavior": 2565,
      "▁standing": 2566,
      "▁efficient": 2567,
      "▁Women": 2568,
      "▁<": 2569,
      "▁dress": 2570,
      "▁square": 2571,
      "▁Community": 2572,
      "19": 2573,
      "▁earth": 2574,
      "▁Society": 2575,
      "▁feels": 2576,
      "off": 2577,
      "▁installation": 2578,
      "▁listen": 2579,
      "▁draw": 2580,
      "▁introduced": 2581,
      "▁fuel": 2582,
      "▁caught": 2583,
      "▁beat": 2584,
      "▁affect": 2585,
      "▁paint": 2586,
      "▁battle": 2587,
      "▁measures": 2588,
      "▁2005": 2589,
      "▁Security": 2590,
      "▁dating": 2591,
      "▁aspects": 2592,
      "▁leads": 2593,
      "▁housing": 2594,
      "▁Los": 2595,
      "▁sugar": 2596,
      "▁Which": 2597,
      "▁Microsoft": 2598,
      "▁fell": 2599,
      "▁;": 2600,
      "▁vs": 2601,
      "▁recipe": 2602,
      "▁seek": 2603,
      "▁profile": 2604,
      "▁Information": 2605,
      "▁revenue": 2606,
      "▁discover": 2607,
      "▁willing": 2608,
      "▁diet": 2609,
      "▁Earth": 2610,
      "▁readers": 2611,
      "▁Mary": 2612,
      "▁confidence": 2613,
      "▁adults": 2614,
      "▁mention": 2615,
      "▁Beach": 2616,
      "▁push": 2617,
      "▁writer": 2618,
      "▁anywhere": 2619,
      "\\": 2620,
      "▁delivered": 2621,
      "▁locations": 2622,
      "▁island": 2623,
      "le": 2624,
      "▁install": 2625,
      "▁novel": 2626,
      "▁installed": 2627,
      "U": 2628,
      "▁desire": 2629,
      "▁issued": 2630,
      "▁components": 2631,
      "▁seeking": 2632,
      "▁mode": 2633,
      "▁library": 2634,
      "▁carried": 2635,
      "▁pro": 2636,
      "which": 2637,
      "▁strategies": 2638,
      "▁nine": 2639,
      "▁proposed": 2640,
      "▁factor": 2641,
      "▁limit": 2642,
      "▁battery": 2643,
      "▁emergency": 2644,
      "▁agent": 2645,
      "▁decades": 2646,
      "▁pull": 2647,
      "▁cast": 2648,
      "▁sister": 2649,
      "▁Instead": 2650,
      "▁Thomas": 2651,
      "▁fat": 2652,
      "▁Commission": 2653,
      "▁theory": 2654,
      "▁promote": 2655,
      "▁partners": 2656,
      "▁lunch": 2657,
      "▁appearance": 2658,
      "▁Program": 2659,
      "▁TO": 2660,
      "▁paying": 2661,
      "▁determined": 2662,
      "▁faster": 2663,
      "▁approved": 2664,
      "▁birth": 2665,
      "▁executive": 2666,
      "▁officer": 2667,
      "▁intended": 2668,
      "#": 2669,
      "▁tend": 2670,
      "▁academic": 2671,
      "▁browser": 2672,
      "▁o": 2673,
      "▁dance": 2674,
      "▁mass": 2675,
      "▁attend": 2676,
      "▁provider": 2677,
      "▁bringing": 2678,
      "▁Project": 2679,
      "▁surgery": 2680,
      "▁accounts": 2681,
      "▁launched": 2682,
      "▁windows": 2683,
      "▁Hi": 2684,
      "▁appreciate": 2685,
      "▁32": 2686,
      "▁worse": 2687,
      "▁affordable": 2688,
      "▁inspired": 2689,
      "▁broken": 2690,
      "less": 2691,
      "▁parking": 2692,
      "▁dogs": 2693,
      "▁failure": 2694,
      "▁noted": 2695,
      "▁tea": 2696,
      "▁concerned": 2697,
      "▁sub": 2698,
      "▁websites": 2699,
      "▁encourage": 2700,
      "▁catch": 2701,
      "▁owned": 2702,
      "′": 2703,
      "▁dining": 2704,
      "▁forced": 2705,
      "▁functions": 2706,
      "▁automatically": 2707,
      "▁45": 2708,
      "▁Did": 2709,
      "▁Journal": 2710,
      "▁Gold": 2711,
      "▁agreed": 2712,
      "▁object": 2713,
      "▁suitable": 2714,
      "▁stated": 2715,
      "▁prepare": 2716,
      "ton": 2717,
      "▁courses": 2718,
      "▁depending": 2719,
      "▁tickets": 2720,
      "▁Team": 2721,
      "▁Japanese": 2722,
      "▁identified": 2723,
      "▁purposes": 2724,
      "apos": 2725,
      "▁interests": 2726,
      "▁cream": 2727,
      "▁reduced": 2728,
      "▁signs": 2729,
      "▁doors": 2730,
      "▁ingredients": 2731,
      "▁PC": 2732,
      "▁dollars": 2733,
      "▁university": 2734,
      "▁Call": 2735,
      "▁twice": 2736,
      "▁technologies": 2737,
      "▁audio": 2738,
      "▁hundreds": 2739,
      "▁Americans": 2740,
      "▁shipping": 2741,
      "▁violence": 2742,
      "▁Brown": 2743,
      "▁Technology": 2744,
      "▁Up": 2745,
      "▁industrial": 2746,
      "▁Australian": 2747,
      "▁fixed": 2748,
      "▁sexual": 2749,
      "▁boat": 2750,
      "▁About": 2751,
      "▁familiar": 2752,
      "▁Chris": 2753,
      "▁participants": 2754,
      "▁imagine": 2755,
      "▁Hill": 2756,
      "▁telling": 2757,
      "▁context": 2758,
      "▁treated": 2759,
      "▁fix": 2760,
      "▁greatest": 2761,
      "▁bigger": 2762,
      "▁database": 2763,
      "▁Centre": 2764,
      "▁religious": 2765,
      "▁exist": 2766,
      "ia": 2767,
      "▁Canadian": 2768,
      "▁considering": 2769,
      "▁tough": 2770,
      "▁snow": 2771,
      "▁bike": 2772,
      "▁therapy": 2773,
      "▁defense": 2774,
      "▁improved": 2775,
      "▁practical": 2776,
      "▁aid": 2777,
      "▁Download": 2778,
      "▁suit": 2779,
      "▁mark": 2780,
      "▁feedback": 2781,
      "▁village": 2782,
      "▁sample": 2783,
      "▁planned": 2784,
      "▁chief": 2785,
      "▁Mike": 2786,
      "▁plays": 2787,
      "▁route": 2788,
      "▁birthday": 2789,
      "▁Tom": 2790,
      "▁drugs": 2791,
      "▁perspective": 2792,
      "▁sides": 2793,
      "▁officers": 2794,
      "▁count": 2795,
      "▁dumpster": 2796,
      "▁updates": 2797,
      "▁deals": 2798,
      "▁grade": 2799,
      "▁lights": 2800,
      "▁obtain": 2801,
      "▁employee": 2802,
      "▁trouble": 2803,
      "▁wearing": 2804,
      "▁EU": 2805,
      "▁significantly": 2806,
      "▁yesterday": 2807,
      "▁casino": 2808,
      "▁freedom": 2809,
      "▁distribution": 2810,
      "▁choices": 2811,
      "▁pop": 2812,
      "▁adult": 2813,
      "▁revealed": 2814,
      "▁affected": 2815,
      "▁spirit": 2816,
      "▁mom": 2817,
      "▁massive": 2818,
      "▁ID": 2819,
      "▁creation": 2820,
      "▁Water": 2821,
      "▁Family": 2822,
      "24": 2823,
      "▁charged": 2824,
      "▁boys": 2825,
      "▁Long": 2826,
      "▁speaking": 2827,
      "▁electric": 2828,
      "▁prefer": 2829,
      "▁comprehensive": 2830,
      "▁interior": 2831,
      "▁Cup": 2832,
      "▁William": 2833,
      "▁remaining": 2834,
      "▁television": 2835,
      "▁contain": 2836,
      "we": 2837,
      "▁chair": 2838,
      "▁PM": 2839,
      "▁concern": 2840,
      "▁recorded": 2841,
      "▁fund": 2842,
      "▁knowing": 2843,
      "▁male": 2844,
      "de": 2845,
      "▁Jan": 2846,
      "▁picked": 2847,
      "▁investors": 2848,
      "▁herself": 2849,
      "▁tests": 2850,
      "▁closer": 2851,
      "▁monthly": 2852,
      "▁supporting": 2853,
      "▁missed": 2854,
      "▁marriage": 2855,
      "▁expression": 2856,
      "▁chain": 2857,
      "▁Real": 2858,
      "▁covers": 2859,
      "▁2004": 2860,
      "▁episode": 2861,
      "▁roll": 2862,
      "▁gun": 2863,
      "▁effectively": 2864,
      "▁Michigan": 2865,
      "▁enable": 2866,
      "▁meal": 2867,
      "▁visiting": 2868,
      "▁valuable": 2869,
      "▁perfectly": 2870,
      "▁consumer": 2871,
      "▁Finally": 2872,
      "▁purchased": 2873,
      "▁educational": 2874,
      "▁Asia": 2875,
      "▁Keep": 2876,
      "▁clinical": 2877,
      "▁bright": 2878,
      "▁fruit": 2879,
      "▁Medical": 2880,
      "▁expertise": 2881,
      "▁advertising": 2882,
      "▁movies": 2883,
      "▁causes": 2884,
      "▁drivers": 2885,
      "na": 2886,
      "▁Sometimes": 2887,
      "▁consumers": 2888,
      "▁cloud": 2889,
      "▁speech": 2890,
      "▁Using": 2891,
      "▁shooting": 2892,
      "▁Android": 2893,
      "▁rain": 2894,
      "not": 2895,
      "▁buildings": 2896,
      "▁commitment": 2897,
      "▁crime": 2898,
      "▁reliable": 2899,
      "▁teach": 2900,
      "▁Mexico": 2901,
      "▁supposed": 2902,
      "▁Angeles": 2903,
      "▁Plus": 2904,
      "▁g": 2905,
      "▁stars": 2906,
      "▁glad": 2907,
      "▁turns": 2908,
      "▁colour": 2909,
      "but": 2910,
      "▁surrounding": 2911,
      "▁happening": 2912,
      "▁portion": 2913,
      "▁formed": 2914,
      "▁chosen": 2915,
      "▁Media": 2916,
      "21": 2917,
      "▁accepted": 2918,
      "▁ring": 2919,
      "▁tells": 2920,
      "▁Times": 2921,
      "▁competitive": 2922,
      "▁surprise": 2923,
      "▁examples": 2924,
      "▁switch": 2925,
      "▁Care": 2926,
      "▁protein": 2927,
      "▁historical": 2928,
      "▁load": 2929,
      "▁Conference": 2930,
      "if": 2931,
      "▁survey": 2932,
      "▁mouth": 2933,
      "ism": 2934,
      "▁symptoms": 2935,
      "▁relatively": 2936,
      "▁smooth": 2937,
      "▁fields": 2938,
      "▁electronic": 2939,
      "▁providers": 2940,
      "▁replace": 2941,
      "▁rare": 2942,
      "▁resource": 2943,
      "22": 2944,
      "▁entirely": 2945,
      "▁resolution": 2946,
      "▁cutting": 2947,
      "▁flowers": 2948,
      "▁rating": 2949,
      "▁extensive": 2950,
      "▁Old": 2951,
      "▁Its": 2952,
      "▁assets": 2953,
      "▁infrastructure": 2954,
      "▁emotional": 2955,
      "▁usual": 2956,
      "▁shoes": 2957,
      "▁regularly": 2958,
      "▁incredible": 2959,
      "▁noticed": 2960,
      "▁candidates": 2961,
      "▁breakfast": 2962,
      "▁Martin": 2963,
      "▁camp": 2964,
      "do": 2965,
      "▁zone": 2966,
      "▁Lee": 2967,
      "▁delicious": 2968,
      "▁recovery": 2969,
      "▁kinds": 2970,
      "▁receiving": 2971,
      "▁truck": 2972,
      "▁matters": 2973,
      "▁Global": 2974,
      "▁feed": 2975,
      "▁w": 2976,
      "▁innovative": 2977,
      "▁Under": 2978,
      "▁begins": 2979,
      "▁Very": 2980,
      "▁engineering": 2981,
      "▁y": 2982,
      "▁register": 2983,
      "▁layer": 2984,
      "w": 2985,
      "▁Food": 2986,
      "▁settings": 2987,
      "▁Bar": 2988,
      "▁license": 2989,
      "▁Museum": 2990,
      "▁obvious": 2991,
      "▁accident": 2992,
      "▁represent": 2993,
      "▁f": 2994,
      "▁answers": 2995,
      "▁explained": 2996,
      "▁upper": 2997,
      "▁studio": 2998,
      "▁taught": 2999,
      "▁participate": 3000,
      "▁grew": 3001,
      "▁secret": 3002,
      "▁respond": 3003,
      "TM": 3004,
      "▁Award": 3005,
      "▁brands": 3006,
      "▁stick": 3007,
      "▁walked": 3008,
      "▁Despite": 3009,
      "▁arms": 3010,
      "▁presentation": 3011,
      "▁manufacturing": 3012,
      "▁walls": 3013,
      "▁Having": 3014,
      "▁agencies": 3015,
      "▁milk": 3016,
      "▁procedure": 3017,
      "▁suggested": 3018,
      "▁visual": 3019,
      "▁youth": 3020,
      "Y": 3021,
      "▁wild": 3022,
      "▁Back": 3023,
      "▁channel": 3024,
      "▁authority": 3025,
      "▁iPhone": 3026,
      "▁accurate": 3027,
      "▁fabric": 3028,
      "▁Grand": 3029,
      "▁criminal": 3030,
      "▁rental": 3031,
      "▁conducted": 3032,
      "▁CEO": 3033,
      "▁defined": 3034,
      "▁retail": 3035,
      "▁element": 3036,
      "▁2003": 3037,
      "▁shower": 3038,
      "▁kill": 3039,
      "▁entered": 3040,
      "▁Sun": 3041,
      "▁apart": 3042,
      "▁guest": 3043,
      "▁identity": 3044,
      "▁Paris": 3045,
      "▁Series": 3046,
      "▁300": 3047,
      "▁signal": 3048,
      "▁border": 3049,
      "▁candidate": 3050,
      "▁dangerous": 3051,
      "▁Scott": 3052,
      "▁roof": 3053,
      "▁throw": 3054,
      "▁apps": 3055,
      "▁indeed": 3056,
      "▁farm": 3057,
      "▁replacement": 3058,
      "▁cycle": 3059,
      "▁passion": 3060,
      "▁circumstances": 3061,
      "▁topics": 3062,
      "▁citizens": 3063,
      "▁moments": 3064,
      "▁Hotel": 3065,
      "▁committee": 3066,
      "▁rent": 3067,
      "all": 3068,
      "▁grown": 3069,
      "so": 3070,
      "▁honest": 3071,
      "▁successfully": 3072,
      "▁holds": 3073,
      "He": 3074,
      "▁pet": 3075,
      "▁Mac": 3076,
      "▁instructions": 3077,
      "▁IN": 3078,
      "▁extended": 3079,
      "▁occur": 3080,
      "▁authorities": 3081,
      "▁messages": 3082,
      "▁none": 3083,
      "▁output": 3084,
      "01": 3085,
      "▁exam": 3086,
      "un": 3087,
      "If": 3088,
      "▁Therefore": 3089,
      "▁domestic": 3090,
      "▁Show": 3091,
      "▁reasonable": 3092,
      "▁regional": 3093,
      "▁believed": 3094,
      "▁clothes": 3095,
      "▁attacks": 3096,
      "▁restaurants": 3097,
      "▁constantly": 3098,
      "▁houses": 3099,
      "▁equal": 3100,
      "▁Right": 3101,
      "▁filed": 3102,
      "▁featured": 3103,
      "▁turning": 3104,
      "▁pack": 3105,
      "▁facing": 3106,
      "▁films": 3107,
      "▁river": 3108,
      "▁crisis": 3109,
      "▁ends": 3110,
      "▁painting": 3111,
      "45": 3112,
      "▁lighting": 3113,
      "▁confirmed": 3114,
      "▁spoke": 3115,
      "ic": 3116,
      "▁fellow": 3117,
      "▁counter": 3118,
      "▁frequently": 3119,
      "▁silver": 3120,
      "▁apartment": 3121,
      "▁scientific": 3122,
      "▁arm": 3123,
      "▁abuse": 3124,
      "What": 3125,
      "▁solar": 3126,
      "▁victory": 3127,
      "▁judge": 3128,
      "▁positions": 3129,
      "▁worst": 3130,
      "▁Market": 3131,
      "▁Federal": 3132,
      "▁cooking": 3133,
      "▁winner": 3134,
      "▁chicken": 3135,
      "▁Master": 3136,
      "▁plate": 3137,
      "▁phase": 3138,
      "▁losing": 3139,
      "▁aim": 3140,
      "▁crowd": 3141,
      "▁contemporary": 3142,
      "▁improvement": 3143,
      "▁league": 3144,
      "▁parent": 3145,
      "▁orders": 3146,
      "▁Italian": 3147,
      "▁El": 3148,
      "▁NOT": 3149,
      "▁chocolate": 3150,
      "▁Royal": 3151,
      "▁folks": 3152,
      "▁carefully": 3153,
      "▁fighting": 3154,
      "▁Richard": 3155,
      "▁quiet": 3156,
      "▁pulled": 3157,
      "▁patterns": 3158,
      "▁institutions": 3159,
      "land": 3160,
      "▁Johnson": 3161,
      "▁Contact": 3162,
      "net": 3163,
      "▁realized": 3164,
      "▁Joe": 3165,
      "▁Car": 3166,
      "▁nearby": 3167,
      "▁Yet": 3168,
      "▁unable": 3169,
      "▁scheduled": 3170,
      "▁motion": 3171,
      "▁liked": 3172,
      "▁Jack": 3173,
      "▁Children": 3174,
      "▁description": 3175,
      "▁guarantee": 3176,
      "▁domain": 3177,
      "▁capable": 3178,
      "▁Game": 3179,
      "▁efficiency": 3180,
      "▁upcoming": 3181,
      "▁researchers": 3182,
      "▁Network": 3183,
      "▁civil": 3184,
      "▁cat": 3185,
      "▁assessment": 3186,
      "▁worldwide": 3187,
      "▁cheese": 3188,
      "▁cup": 3189,
      "▁transport": 3190,
      "▁typical": 3191,
      "▁employment": 3192,
      "▁surprised": 3193,
      "▁salt": 3194,
      "▁organic": 3195,
      "▁Still": 3196,
      "▁Part": 3197,
      "▁appointment": 3198,
      "▁joint": 3199,
      "▁meat": 3200,
      "▁justice": 3201,
      "▁expectations": 3202,
      "▁degrees": 3203,
      "“": 3204,
      "▁exact": 3205,
      "Z": 3206,
      "▁leather": 3207,
      "▁sat": 3208,
      "▁Review": 3209,
      "▁input": 3210,
      "▁impossible": 3211,
      "el": 3212,
      "▁payments": 3213,
      "▁registration": 3214,
      "▁soul": 3215,
      "▁Three": 3216,
      "▁Virginia": 3217,
      "▁seriously": 3218,
      "▁cake": 3219,
      "▁Donald": 3220,
      "▁kid": 3221,
      "▁Senate": 3222,
      "99": 3223,
      "▁stands": 3224,
      "▁external": 3225,
      "▁edition": 3226,
      "▁dropped": 3227,
      "▁scored": 3228,
      "▁exclusive": 3229,
      "▁mixed": 3230,
      "▁48": 3231,
      "▁discussed": 3232,
      "▁ordered": 3233,
      "▁Chief": 3234,
      "▁Buy": 3235,
      "▁Energy": 3236,
      "▁yellow": 3237,
      "▁obtained": 3238,
      "▁threat": 3239,
      "▁impressive": 3240,
      "▁attorney": 3241,
      "▁Set": 3242,
      "▁medicine": 3243,
      "▁goods": 3244,
      "▁Learn": 3245,
      "▁Carolina": 3246,
      "▁fly": 3247,
      "▁procedures": 3248,
      "▁agents": 3249,
      "▁awareness": 3250,
      "te": 3251,
      "▁politics": 3252,
      "▁Jones": 3253,
      "▁hate": 3254,
      "▁Republican": 3255,
      "▁Though": 3256,
      "ville": 3257,
      "▁brown": 3258,
      "▁originally": 3259,
      "ar": 3260,
      "▁teeth": 3261,
      "▁tiny": 3262,
      "▁Academy": 3263,
      "▁recognized": 3264,
      "▁featuring": 3265,
      "▁trained": 3266,
      "▁hurt": 3267,
      "▁collect": 3268,
      "▁hire": 3269,
      "▁funny": 3270,
      "▁Ben": 3271,
      "▁possibility": 3272,
      "▁incident": 3273,
      "▁Arts": 3274,
      "▁tomorrow": 3275,
      "▁native": 3276,
      "▁informed": 3277,
      "▁sizes": 3278,
      "▁personally": 3279,
      "▁entertainment": 3280,
      "▁earn": 3281,
      "▁command": 3282,
      "▁searching": 3283,
      "▁Sea": 3284,
      "▁Wall": 3285,
      "▁crazy": 3286,
      "▁fairly": 3287,
      "▁Festival": 3288,
      "▁Unfortunately": 3289,
      "▁beer": 3290,
      "▁rear": 3291,
      "▁smile": 3292,
      "▁hoping": 3293,
      "▁sport": 3294,
      "▁earned": 3295,
      "▁objects": 3296,
      "▁ancient": 3297,
      "▁remote": 3298,
      "▁Steve": 3299,
      "▁foods": 3300,
      "▁loans": 3301,
      "see": 3302,
      "▁prove": 3303,
      "23": 3304,
      "▁hardware": 3305,
      "▁Full": 3306,
      "▁machines": 3307,
      "end": 3308,
      "▁talent": 3309,
      "ist": 3310,
      "▁Boston": 3311,
      "▁figures": 3312,
      "▁alcohol": 3313,
      "▁banks": 3314,
      "▁meetings": 3315,
      "▁ticket": 3316,
      "▁inspiration": 3317,
      "▁Photo": 3318,
      "▁Looking": 3319,
      "▁anyway": 3320,
      "ta": 3321,
      "▁aspect": 3322,
      "▁ongoing": 3323,
      "▁sessions": 3324,
      "▁mainly": 3325,
      "▁county": 3326,
      "▁favourite": 3327,
      "▁slowly": 3328,
      "▁represents": 3329,
      "▁returns": 3330,
      "▁privacy": 3331,
      "▁foundation": 3332,
      "▁crew": 3333,
      "▁discount": 3334,
      "▁situations": 3335,
      "son": 3336,
      "▁enhance": 3337,
      "▁appeal": 3338,
      "▁2002": 3339,
      "▁Middle": 3340,
      "▁challenging": 3341,
      "ley": 3342,
      "▁everyday": 3343,
      "▁tasks": 3344,
      "▁supplies": 3345,
      "60": 3346,
      "▁Little": 3347,
      "▁Thus": 3348,
      "▁premium": 3349,
      "▁airport": 3350,
      "▁2001": 3351,
      "▁Special": 3352,
      "▁regulations": 3353,
      "be": 3354,
      "▁operate": 3355,
      "▁Rock": 3356,
      "▁Second": 3357,
      "▁younger": 3358,
      "uk": 3359,
      "▁conduct": 3360,
      "▁submit": 3361,
      "▁bodies": 3362,
      "▁cute": 3363,
      "▁Watch": 3364,
      "▁Sam": 3365,
      "▁Spanish": 3366,
      "▁luxury": 3367,
      "▁reporting": 3368,
      "▁decade": 3369,
      "▁Fire": 3370,
      "▁Students": 3371,
      "▁36": 3372,
      "▁outstanding": 3373,
      "▁nuclear": 3374,
      "▁Korea": 3375,
      "ity": 3376,
      "35": 3377,
      "▁dealing": 3378,
      "▁Library": 3379,
      "▁injuries": 3380,
      "▁CD": 3381,
      "▁Perhaps": 3382,
      "▁listening": 3383,
      "▁atmosphere": 3384,
      "▁west": 3385,
      "j": 3386,
      "▁Ireland": 3387,
      "▁View": 3388,
      "▁debate": 3389,
      "▁closely": 3390,
      "▁celebrate": 3391,
      "▁consistent": 3392,
      "▁taxes": 3393,
      "▁passing": 3394,
      "▁technique": 3395,
      "▁protected": 3396,
      "▁diverse": 3397,
      "▁somewhere": 3398,
      "▁joy": 3399,
      "▁interface": 3400,
      "▁History": 3401,
      "▁spiritual": 3402,
      "▁port": 3403,
      "▁Bible": 3404,
      "▁Un": 3405,
      "▁normally": 3406,
      "▁Human": 3407,
      "▁Manager": 3408,
      "▁differences": 3409,
      "mail": 3410,
      "▁skill": 3411,
      "▁saving": 3412,
      "▁Look": 3413,
      "▁intelligence": 3414,
      "▁Le": 3415,
      "▁vital": 3416,
      "▁Mar": 3417,
      "32": 3418,
      "▁sheet": 3419,
      "▁recognize": 3420,
      "▁magazine": 3421,
      "▁collected": 3422,
      "▁conflict": 3423,
      "▁ex": 3424,
      "▁keeps": 3425,
      "▁shift": 3426,
      "la": 3427,
      "▁cable": 3428,
      "▁Light": 3429,
      "▁musical": 3430,
      "▁Live": 3431,
      "▁Should": 3432,
      "he": 3433,
      "▁motor": 3434,
      "▁landscape": 3435,
      "▁template": 3436,
      "▁campus": 3437,
      "▁constant": 3438,
      "▁mountain": 3439,
      "▁trend": 3440,
      "▁increases": 3441,
      "▁serves": 3442,
      "▁describe": 3443,
      "▁lifestyle": 3444,
      "▁programme": 3445,
      "▁attended": 3446,
      "▁mail": 3447,
      "▁attached": 3448,
      "▁horse": 3449,
      "▁implementation": 3450,
      "▁visited": 3451,
      "go": 3452,
      "▁ultimately": 3453,
      "▁basically": 3454,
      "▁Such": 3455,
      "with": 3456,
      "▁tested": 3457,
      "▁log": 3458,
      "▁Plan": 3459,
      "▁Santa": 3460,
      "▁risks": 3461,
      "▁Justice": 3462,
      "▁neighborhood": 3463,
      "▁iron": 3464,
      "▁residential": 3465,
      "▁Work": 3466,
      "▁legs": 3467,
      "▁ease": 3468,
      "▁accessible": 3469,
      "▁immediate": 3470,
      "▁carbon": 3471,
      "▁engage": 3472,
      "▁replaced": 3473,
      "▁profit": 3474,
      "▁linked": 3475,
      "▁minor": 3476,
      "▁bottle": 3477,
      "▁relief": 3478,
      "▁Italy": 3479,
      "▁component": 3480,
      "▁saved": 3481,
      "▁authors": 3482,
      "▁pleased": 3483,
      "▁claimed": 3484,
      "▁organized": 3485,
      "▁resistance": 3486,
      "related": 3487,
      "▁obviously": 3488,
      "▁CA": 3489,
      "▁Out": 3490,
      "▁Britain": 3491,
      "▁Through": 3492,
      "▁neck": 3493,
      "▁chapter": 3494,
      "▁healthcare": 3495,
      "▁talks": 3496,
      "There": 3497,
      "▁struggle": 3498,
      "▁height": 3499,
      "▁resulting": 3500,
      "▁bowl": 3501,
      "▁estimated": 3502,
      "▁inches": 3503,
      "▁referred": 3504,
      "▁Hospital": 3505,
      "▁Code": 3506,
      "▁monitor": 3507,
      "▁destination": 3508,
      "▁generate": 3509,
      "▁brief": 3510,
      "▁Southern": 3511,
      "▁concrete": 3512,
      "▁innovation": 3513,
      "▁©": 3514,
      "▁Room": 3515,
      "▁OR": 3516,
      "▁garage": 3517,
      "▁Prime": 3518,
      "▁Charles": 3519,
      "▁default": 3520,
      "▁guidance": 3521,
      "▁networks": 3522,
      "▁adventure": 3523,
      "▁luck": 3524,
      "▁hosting": 3525,
      "▁yards": 3526,
      "▁letters": 3527,
      "▁Instagram": 3528,
      "▁integrated": 3529,
      "▁suffering": 3530,
      "▁partnership": 3531,
      "▁recording": 3532,
      "▁Control": 3533,
      "▁exposure": 3534,
      "▁watched": 3535,
      "▁Town": 3536,
      "▁chose": 3537,
      "▁widely": 3538,
      "▁tech": 3539,
      "▁leg": 3540,
      "▁Search": 3541,
      "▁33": 3542,
      "▁millions": 3543,
      "▁promise": 3544,
      "▁stunning": 3545,
      "▁Young": 3546,
      "▁duty": 3547,
      "▁designer": 3548,
      "▁Would": 3549,
      "▁talked": 3550,
      "▁gifts": 3551,
      "▁mini": 3552,
      "▁reflect": 3553,
      "▁quote": 3554,
      "▁Being": 3555,
      "▁pm": 3556,
      "▁supports": 3557,
      "▁Jewish": 3558,
      "▁Play": 3559,
      "▁performing": 3560,
      "▁Ohio": 3561,
      "▁kit": 3562,
      "▁somewhat": 3563,
      "▁papers": 3564,
      "▁stood": 3565,
      "▁expand": 3566,
      "▁severe": 3567,
      "▁planet": 3568,
      "▁crucial": 3569,
      "▁invited": 3570,
      "▁lucky": 3571,
      "▁extent": 3572,
      "▁qualified": 3573,
      "▁Army": 3574,
      "▁streets": 3575,
      "▁primarily": 3576,
      "▁achieved": 3577,
      "200": 3578,
      "▁bridge": 3579,
      "▁Men": 3580,
      "▁hasn": 3581,
      "▁feelings": 3582,
      "▁chemical": 3583,
      "▁acid": 3584,
      "▁argument": 3585,
      "05": 3586,
      "▁jump": 3587,
      "▁75": 3588,
      "▁rose": 3589,
      "▁Place": 3590,
      "▁monitoring": 3591,
      "▁soil": 3592,
      "▁fishing": 3593,
      "▁facts": 3594,
      "▁manufacturer": 3595,
      "▁trends": 3596,
      "▁https": 3597,
      "▁pan": 3598,
      "▁urban": 3599,
      "▁vast": 3600,
      "▁empty": 3601,
      "▁hundred": 3602,
      "os": 3603,
      "rs": 3604,
      "▁hidden": 3605,
      "you": 3606,
      "▁ages": 3607,
      "ra": 3608,
      "▁improving": 3609,
      "▁expressed": 3610,
      "▁east": 3611,
      "▁magic": 3612,
      "▁depth": 3613,
      "▁express": 3614,
      "ne": 3615,
      "▁noise": 3616,
      "▁Williams": 3617,
      "▁legislation": 3618,
      "▁Francisco": 3619,
      "▁lessons": 3620,
      "▁dates": 3621,
      "▁comparison": 3622,
      "▁percentage": 3623,
      "▁Small": 3624,
      "▁memories": 3625,
      "▁extension": 3626,
      "▁boost": 3627,
      "▁choosing": 3628,
      "▁forever": 3629,
      "▁scheme": 3630,
      "▁Digital": 3631,
      "▁savings": 3632,
      "▁capture": 3633,
      "▁solve": 3634,
      "▁increasingly": 3635,
      "▁u": 3636,
      "▁causing": 3637,
      "▁r": 3638,
      "▁clothing": 3639,
      "▁strategic": 3640,
      "▁prison": 3641,
      "▁collaboration": 3642,
      "▁drawing": 3643,
      "▁Jim": 3644,
      "▁approval": 3645,
      "▁bonus": 3646,
      "▁aside": 3647,
      "▁reputation": 3648,
      "▁contribute": 3649,
      "▁sending": 3650,
      "▁occurred": 3651,
      "▁writers": 3652,
      "▁transportation": 3653,
      "▁spaces": 3654,
      "▁directed": 3655,
      "▁compare": 3656,
      "▁desk": 3657,
      "▁broad": 3658,
      "▁shouldn": 3659,
      "▁suggests": 3660,
      "▁Spring": 3661,
      "▁Sports": 3662,
      "▁remained": 3663,
      "▁removal": 3664,
      "▁graduate": 3665,
      "▁reduction": 3666,
      "▁stuck": 3667,
      "27": 3668,
      "▁chat": 3669,
      "▁expenses": 3670,
      "▁split": 3671,
      "▁flexible": 3672,
      "▁vacation": 3673,
      "AP": 3674,
      "▁muscle": 3675,
      "▁thread": 3676,
      "▁labor": 3677,
      "▁ratio": 3678,
      "▁founded": 3679,
      "▁opposite": 3680,
      "▁weapons": 3681,
      "▁membership": 3682,
      "▁arts": 3683,
      "▁reader": 3684,
      "▁dynamic": 3685,
      "28": 3686,
      "▁versions": 3687,
      "▁reaction": 3688,
      "▁moves": 3689,
      "▁seats": 3690,
      "▁humans": 3691,
      "▁Ford": 3692,
      "▁hole": 3693,
      "▁festival": 3694,
      "▁potentially": 3695,
      "▁principles": 3696,
      "▁gallery": 3697,
      "▁engagement": 3698,
      "▁managing": 3699,
      "▁Iran": 3700,
      "▁illegal": 3701,
      "▁Price": 3702,
      "▁fail": 3703,
      "▁weekly": 3704,
      "▁Zealand": 3705,
      "▁virtual": 3706,
      "▁trail": 3707,
      "▁historic": 3708,
      "▁gear": 3709,
      "▁lawyer": 3710,
      "▁Northern": 3711,
      "▁cook": 3712,
      "▁bags": 3713,
      "▁generated": 3714,
      "level": 3715,
      "▁transition": 3716,
      "▁yard": 3717,
      "▁cookies": 3718,
      "▁manual": 3719,
      "▁Dan": 3720,
      "▁loves": 3721,
      "▁Matt": 3722,
      "▁mining": 3723,
      "No": 3724,
      "26": 3725,
      "▁alongside": 3726,
      "that": 3727,
      "▁largely": 3728,
      "▁Financial": 3729,
      "▁drinking": 3730,
      "▁anymore": 3731,
      "▁150": 3732,
      "▁contrast": 3733,
      "▁label": 3734,
      "▁observed": 3735,
      "▁fitness": 3736,
      "▁sorry": 3737,
      "▁tradition": 3738,
      "▁Coast": 3739,
      "▁arrested": 3740,
      "▁statements": 3741,
      "▁definition": 3742,
      "▁shots": 3743,
      "▁Jersey": 3744,
      "▁establish": 3745,
      "▁era": 3746,
      "▁permanent": 3747,
      "▁broke": 3748,
      "▁Welcome": 3749,
      "▁styles": 3750,
      "▁Table": 3751,
      "▁di": 3752,
      "▁arrive": 3753,
      "▁acting": 3754,
      "▁400": 3755,
      "▁sad": 3756,
      "▁pleasure": 3757,
      "▁engaged": 3758,
      "▁deck": 3759,
      "▁victims": 3760,
      "▁submitted": 3761,
      "▁alive": 3762,
      "▁headed": 3763,
      "▁carrying": 3764,
      "▁Local": 3765,
      "▁DC": 3766,
      "back": 3767,
      "▁1990": 3768,
      "▁finance": 3769,
      "▁false": 3770,
      "▁Pacific": 3771,
      "▁weren": 3772,
      "▁YOU": 3773,
      "▁inner": 3774,
      "▁tip": 3775,
      "▁sauce": 3776,
      "▁Secretary": 3777,
      "▁relative": 3778,
      "▁printed": 3779,
      "▁Video": 3780,
      "▁architecture": 3781,
      "▁pink": 3782,
      "way": 3783,
      "▁logo": 3784,
      "▁doctors": 3785,
      "▁routine": 3786,
      "▁driven": 3787,
      "▁creates": 3788,
      "ch": 3789,
      "▁gender": 3790,
      "▁regions": 3791,
      "▁religion": 3792,
      "▁tight": 3793,
      "▁Executive": 3794,
      "▁controlled": 3795,
      "▁Head": 3796,
      "▁confident": 3797,
      "▁incredibly": 3798,
      "е": 3799,
      "▁aircraft": 3800,
      "▁editor": 3801,
      "▁34": 3802,
      "▁proposal": 3803,
      "▁Remember": 3804,
      "▁Ryan": 3805,
      "▁extreme": 3806,
      "▁h": 3807,
      "▁sick": 3808,
      "▁communications": 3809,
      "▁Pre": 3810,
      "▁dad": 3811,
      "▁Andrew": 3812,
      "▁proven": 3813,
      "▁adds": 3814,
      "▁believes": 3815,
      "▁valid": 3816,
      "▁pace": 3817,
      "▁electrical": 3818,
      "▁Games": 3819,
      "▁^": 3820,
      "▁necessarily": 3821,
      "▁preparation": 3822,
      "▁Division": 3823,
      "▁Report": 3824,
      "▁whenever": 3825,
      "▁honor": 3826,
      "▁afraid": 3827,
      "▁pure": 3828,
      "▁bread": 3829,
      "▁manufacturers": 3830,
      "me": 3831,
      "▁follows": 3832,
      "▁proof": 3833,
      "▁Ms": 3834,
      "▁continuing": 3835,
      "▁acts": 3836,
      "▁tank": 3837,
      "▁Clinton": 3838,
      "▁literally": 3839,
      "▁row": 3840,
      "▁shoot": 3841,
      "▁gorgeous": 3842,
      "▁posting": 3843,
      "▁structures": 3844,
      "▁filter": 3845,
      "▁AM": 3846,
      "▁Visit": 3847,
      "▁dollar": 3848,
      "▁involving": 3849,
      "▁expansion": 3850,
      "▁attractive": 3851,
      "▁firms": 3852,
      "▁plane": 3853,
      "▁Class": 3854,
      "▁Systems": 3855,
      "▁division": 3856,
      "▁enjoying": 3857,
      "▁Page": 3858,
      "▁grant": 3859,
      "▁FREE": 3860,
      "▁existence": 3861,
      "▁raw": 3862,
      "▁wheel": 3863,
      "▁awarded": 3864,
      "▁giant": 3865,
      "▁tracks": 3866,
      "▁forum": 3867,
      "▁Mrs": 3868,
      "▁golf": 3869,
      "house": 3870,
      "▁sand": 3871,
      "▁bear": 3872,
      "29": 3873,
      "▁convenient": 3874,
      "▁producing": 3875,
      "▁evil": 3876,
      "▁Bob": 3877,
      "▁ultimate": 3878,
      "▁twenty": 3879,
      "▁assume": 3880,
      "▁Catholic": 3881,
      "▁introduction": 3882,
      "▁shops": 3883,
      "▁index": 3884,
      "▁desired": 3885,
      "▁refer": 3886,
      "▁photography": 3887,
      "▁Try": 3888,
      "▁sustainable": 3889,
      "▁victim": 3890,
      "▁recommendations": 3891,
      "▁Auto": 3892,
      "▁regard": 3893,
      "▁samples": 3894,
      "▁Asian": 3895,
      "da": 3896,
      "▁lies": 3897,
      "▁depends": 3898,
      "▁neither": 3899,
      "▁apparently": 3900,
      "▁thick": 3901,
      "▁Dec": 3902,
      "▁faces": 3903,
      "▁matches": 3904,
      "▁Insurance": 3905,
      "▁Again": 3906,
      "▁sky": 3907,
      "▁Colorado": 3908,
      "▁amounts": 3909,
      "▁behalf": 3910,
      "▁zero": 3911,
      "▁coast": 3912,
      "▁household": 3913,
      "▁Professor": 3914,
      "▁equipped": 3915,
      "▁Happy": 3916,
      "▁joining": 3917,
      "▁ending": 3918,
      "▁Democratic": 3919,
      "▁king": 3920,
      "▁draft": 3921,
      "▁industries": 3922,
      "▁implement": 3923,
      "▁crusher": 3924,
      "▁till": 3925,
      "▁developers": 3926,
      "▁LLC": 3927,
      "▁falling": 3928,
      "ian": 3929,
      "▁roles": 3930,
      "▁minister": 3931,
      "▁Hope": 3932,
      "ies": 3933,
      "▁certified": 3934,
      "75": 3935,
      "▁covering": 3936,
      "▁consideration": 3937,
      "▁platforms": 3938,
      "▁reducing": 3939,
      "▁thin": 3940,
      "▁sight": 3941,
      "▁outcome": 3942,
      "▁tables": 3943,
      "▁Jackson": 3944,
      "▁hopes": 3945,
      "▁respectively": 3946,
      "▁Queen": 3947,
      "▁regardless": 3948,
      "▁literature": 3949,
      "▁everywhere": 3950,
      "▁rising": 3951,
      "▁heads": 3952,
      "▁Georgia": 3953,
      "my": 3954,
      "▁root": 3955,
      "▁workshop": 3956,
      "▁handling": 3957,
      "▁vary": 3958,
      "▁scientists": 3959,
      "▁involves": 3960,
      "▁stream": 3961,
      "▁boxes": 3962,
      "▁craft": 3963,
      "▁km": 3964,
      "▁concerning": 3965,
      "▁Area": 3966,
      "▁1999": 3967,
      "▁dreams": 3968,
      "▁suddenly": 3969,
      "▁council": 3970,
      "▁Enjoy": 3971,
      "▁formal": 3972,
      "▁requested": 3973,
      "▁presents": 3974,
      "▁lay": 3975,
      "▁wealth": 3976,
      "▁meals": 3977,
      "▁CO": 3978,
      "▁visible": 3979,
      "▁eligible": 3980,
      "▁strange": 3981,
      "▁injured": 3982,
      "▁priority": 3983,
      "03": 3984,
      "▁healing": 3985,
      "▁careful": 3986,
      "▁butter": 3987,
      "▁debut": 3988,
      "▁IP": 3989,
      "▁drawn": 3990,
      "▁Mobile": 3991,
      "men": 3992,
      "▁portfolio": 3993,
      "▁recognition": 3994,
      "▁bunch": 3995,
      "▁bath": 3996,
      "▁YouTube": 3997,
      "▁stored": 3998,
      "▁relations": 3999,
      "▁limits": 4000,
      "▁Toronto": 4001,
      "▁categories": 4002,
      "▁consumption": 4003,
      "▁Come": 4004,
      "▁Night": 4005,
      "▁persons": 4006,
      "▁OK": 4007,
      "80": 4008,
      "▁newly": 4009,
      "▁elected": 4010,
      "▁breaking": 4011,
      "▁Engineering": 4012,
      "▁sensitive": 4013,
      "▁micro": 4014,
      "▁framework": 4015,
      "▁wire": 4016,
      "▁guidelines": 4017,
      "▁blocks": 4018,
      "▁Kim": 4019,
      "▁Holy": 4020,
      "▁flying": 4021,
      "▁string": 4022,
      "▁tonight": 4023,
      "▁Nov": 4024,
      "▁mixture": 4025,
      "▁enterprise": 4026,
      "▁electricity": 4027,
      "▁murder": 4028,
      "▁Trust": 4029,
      "▁offices": 4030,
      "▁Without": 4031,
      "▁Force": 4032,
      "▁accessories": 4033,
      "▁association": 4034,
      "▁Supreme": 4035,
      "▁Van": 4036,
      "▁stable": 4037,
      "▁inch": 4038,
      "▁understood": 4039,
      "▁cap": 4040,
      "▁invest": 4041,
      "▁Everyone": 4042,
      "▁Guide": 4043,
      "ca": 4044,
      "▁Was": 4045,
      "▁escape": 4046,
      "▁chart": 4047,
      "▁rice": 4048,
      "▁Section": 4049,
      "▁programming": 4050,
      "▁heading": 4051,
      "<": 4052,
      "▁bills": 4053,
      "▁forest": 4054,
      "▁HD": 4055,
      "▁mg": 4056,
      "▁dental": 4057,
      "▁occasion": 4058,
      "▁Wood": 4059,
      "▁Joseph": 4060,
      "▁preferred": 4061,
      "▁exposed": 4062,
      "▁tone": 4063,
      "▁naturally": 4064,
      "▁Join": 4065,
      "▁guitar": 4066,
      "▁Kingdom": 4067,
      "▁permission": 4068,
      "▁hits": 4069,
      "▁capabilities": 4070,
      "▁anxiety": 4071,
      "▁Spirit": 4072,
      "▁pounds": 4073,
      "▁Site": 4074,
      "▁van": 4075,
      "um": 4076,
      "▁Order": 4077,
      "▁rid": 4078,
      "▁awards": 4079,
      "▁stronger": 4080,
      "▁Additionally": 4081,
      "▁Jr": 4082,
      "▁personality": 4083,
      "▁storm": 4084,
      "▁Feb": 4085,
      "▁containing": 4086,
      "▁Following": 4087,
      "▁slot": 4088,
      "▁Store": 4089,
      "Q": 4090,
      "▁consists": 4091,
      "▁suffered": 4092,
      "▁array": 4093,
      "▁random": 4094,
      "▁tournament": 4095,
      "▁afford": 4096,
      "▁accused": 4097,
      "▁Building": 4098,
      "▁commonly": 4099,
      "▁harder": 4100,
      "▁transaction": 4101,
      "▁staying": 4102,
      "▁shoulder": 4103,
      "▁specialist": 4104,
      "▁communicate": 4105,
      "▁viewed": 4106,
      "▁Land": 4107,
      "90": 4108,
      "▁birds": 4109,
      "▁objective": 4110,
      "▁tired": 4111,
      "▁oven": 4112,
      "▁Daniel": 4113,
      "▁initially": 4114,
      "▁requests": 4115,
      "▁Daily": 4116,
      "▁connections": 4117,
      "ling": 4118,
      "▁usage": 4119,
      "▁functional": 4120,
      "▁Adam": 4121,
      "▁laid": 4122,
      "▁closing": 4123,
      "▁bars": 4124,
      "▁enforcement": 4125,
      "▁granted": 4126,
      "▁rural": 4127,
      "▁gotten": 4128,
      "▁suspect": 4129,
      "▁dish": 4130,
      "▁faced": 4131,
      "▁liquid": 4132,
      "▁indicate": 4133,
      "▁Meanwhile": 4134,
      "▁Copyright": 4135,
      "▁Spain": 4136,
      "▁printing": 4137,
      "▁findings": 4138,
      "▁Irish": 4139,
      "▁Shop": 4140,
      "▁killing": 4141,
      "▁latter": 4142,
      "▁chances": 4143,
      "▁kick": 4144,
      "▁requirement": 4145,
      "▁Pakistan": 4146,
      "ma": 4147,
      "▁suggestions": 4148,
      "▁tag": 4149,
      "▁Living": 4150,
      "▁semi": 4151,
      "▁treatments": 4152,
      "▁whilst": 4153,
      "▁professor": 4154,
      "▁checking": 4155,
      "▁publication": 4156,
      "▁explains": 4157,
      "▁marks": 4158,
      "02": 4159,
      "▁displayed": 4160,
      "▁channels": 4161,
      "▁Summer": 4162,
      "▁complicated": 4163,
      "▁wooden": 4164,
      "▁represented": 4165,
      "▁Henry": 4166,
      "▁eggs": 4167,
      "▁lift": 4168,
      "▁warning": 4169,
      "▁availability": 4170,
      "▁swimming": 4171,
      "▁sufficient": 4172,
      "▁opposition": 4173,
      "▁Start": 4174,
      "▁unknown": 4175,
      "▁grand": 4176,
      "▁Support": 4177,
      "▁lesson": 4178,
      "▁gained": 4179,
      "▁tall": 4180,
      "▁retirement": 4181,
      "▁Studies": 4182,
      "per": 4183,
      "▁breath": 4184,
      "▁Tim": 4185,
      "▁password": 4186,
      "▁App": 4187,
      "▁controls": 4188,
      "▁edit": 4189,
      "▁applicable": 4190,
      "well": 4191,
      "▁upgrade": 4192,
      "They": 4193,
      "▁Word": 4194,
      "▁wave": 4195,
      "▁contained": 4196,
      "▁superior": 4197,
      "▁Rights": 4198,
      "▁Taylor": 4199,
      "▁compliance": 4200,
      "▁tissue": 4201,
      "▁Training": 4202,
      "▁Democrats": 4203,
      "▁Space": 4204,
      "▁Republic": 4205,
      "▁Four": 4206,
      "▁pot": 4207,
      "▁trash": 4208,
      "▁Bush": 4209,
      "▁hell": 4210,
      "▁Him": 4211,
      "▁concepts": 4212,
      "▁strongly": 4213,
      "▁ad": 4214,
      "▁Garden": 4215,
      "▁hotels": 4216,
      "▁stayed": 4217,
      "▁purchasing": 4218,
      "▁k": 4219,
      "side": 4220,
      "▁sought": 4221,
      "▁Oct": 4222,
      "▁38": 4223,
      "▁Fox": 4224,
      "▁subjects": 4225,
      "▁Rose": 4226,
      "▁42": 4227,
      "▁prime": 4228,
      "▁returning": 4229,
      "31": 4230,
      "▁factory": 4231,
      "▁Stone": 4232,
      "▁·": 4233,
      "▁shut": 4234,
      "▁marked": 4235,
      "▁loving": 4236,
      "▁DNA": 4237,
      "field": 4238,
      "▁recipes": 4239,
      "▁approaches": 4240,
      "▁Cross": 4241,
      "▁hadn": 4242,
      "▁forth": 4243,
      "▁powder": 4244,
      "▁1980": 4245,
      "▁exhibition": 4246,
      "▁resume": 4247,
      "▁fifth": 4248,
      "▁37": 4249,
      "▁consequences": 4250,
      "▁Fund": 4251,
      "▁mortgage": 4252,
      "▁diseases": 4253,
      "ka": 4254,
      "▁Mountain": 4255,
      "▁gap": 4256,
      "▁pointed": 4257,
      "▁classroom": 4258,
      "▁calendar": 4259,
      "▁pricing": 4260,
      "▁encouraged": 4261,
      "▁IS": 4262,
      "And": 4263,
      "▁deeply": 4264,
      "▁wanting": 4265,
      "▁Disney": 4266,
      "▁managers": 4267,
      "▁guard": 4268,
      "▁brilliant": 4269,
      "▁traveling": 4270,
      "▁ceremony": 4271,
      "ED": 4272,
      "▁mistake": 4273,
      "▁Radio": 4274,
      "▁greatly": 4275,
      "▁strike": 4276,
      "▁39": 4277,
      "▁plot": 4278,
      "▁Frank": 4279,
      "▁ads": 4280,
      "▁demands": 4281,
      "▁wondering": 4282,
      "▁Alex": 4283,
      "▁favor": 4284,
      "70": 4285,
      "▁1998": 4286,
      "age": 4287,
      "My": 4288,
      "▁riding": 4289,
      "▁representative": 4290,
      "▁evaluation": 4291,
      "▁enables": 4292,
      "▁everybody": 4293,
      "▁checked": 4294,
      "▁Greek": 4295,
      "▁rely": 4296,
      "▁army": 4297,
      "▁downtown": 4298,
      "friendly": 4299,
      "▁55": 4300,
      "▁equivalent": 4301,
      "▁wake": 4302,
      "▁entering": 4303,
      "including": 4304,
      "▁Based": 4305,
      "▁stretch": 4306,
      "▁entrance": 4307,
      "▁newspaper": 4308,
      "▁Marketing": 4309,
      "▁maintaining": 4310,
      "▁breast": 4311,
      "▁belief": 4312,
      "▁southern": 4313,
      "▁currency": 4314,
      "▁FOR": 4315,
      "▁temporary": 4316,
      "▁hanging": 4317,
      "▁Brian": 4318,
      "▁mile": 4319,
      "300": 4320,
      "▁codes": 4321,
      "▁hosted": 4322,
      "▁setup": 4323,
      "▁Arizona": 4324,
      "▁crash": 4325,
      "▁65": 4326,
      "▁compensation": 4327,
      "▁script": 4328,
      "▁faculty": 4329,
      "▁roads": 4330,
      "▁colleagues": 4331,
      "▁Steel": 4332,
      "▁lock": 4333,
      "▁secondary": 4334,
      "▁lie": 4335,
      "▁Week": 4336,
      "▁correctly": 4337,
      "▁outcomes": 4338,
      "▁earnings": 4339,
      "▁shirt": 4340,
      "▁sections": 4341,
      "▁bone": 4342,
      "▁NFL": 4343,
      "▁Louis": 4344,
      "▁studied": 4345,
      "▁pocket": 4346,
      "▁adopted": 4347,
      "▁merely": 4348,
      "▁SEO": 4349,
      "▁Software": 4350,
      "▁participation": 4351,
      "▁admit": 4352,
      "▁deposit": 4353,
      "▁contest": 4354,
      "▁Father": 4355,
      "▁Eastern": 4356,
      "ry": 4357,
      "▁Golden": 4358,
      "▁thousand": 4359,
      "▁ensuring": 4360,
      "▁criteria": 4361,
      "▁Kevin": 4362,
      "▁Corporation": 4363,
      "ally": 4364,
      "04": 4365,
      "▁Oil": 4366,
      "▁studying": 4367,
      "▁appointed": 4368,
      "▁absolute": 4369,
      "▁maintained": 4370,
      "▁tagged": 4371,
      "▁exists": 4372,
      "▁scenes": 4373,
      "▁guilty": 4374,
      "▁somehow": 4375,
      "▁dust": 4376,
      "▁specified": 4377,
      "▁sentence": 4378,
      "em": 4379,
      "quality": 4380,
      "▁venue": 4381,
      "▁elections": 4382,
      "▁ocean": 4383,
      "▁Hot": 4384,
      "▁okay": 4385,
      "▁reveal": 4386,
      "▁illness": 4387,
      "▁extend": 4388,
      "▁attitude": 4389,
      "▁Modern": 4390,
      "▁initiative": 4391,
      "▁Houston": 4392,
      "▁spots": 4393,
      "▁acquired": 4394,
      "▁reaching": 4395,
      "▁lady": 4396,
      "▁characteristics": 4397,
      "▁voters": 4398,
      "▁depression": 4399,
      "▁Point": 4400,
      "▁assigned": 4401,
      "▁j": 4402,
      "▁wins": 4403,
      "▁blend": 4404,
      "▁Want": 4405,
      "▁childhood": 4406,
      "▁occurs": 4407,
      "▁Singapore": 4408,
      "▁integration": 4409,
      "down": 4410,
      "▁laptop": 4411,
      "▁Avenue": 4412,
      "▁NY": 4413,
      "▁wireless": 4414,
      "▁pride": 4415,
      "▁graphics": 4416,
      "▁volunteers": 4417,
      "▁decent": 4418,
      "▁museum": 4419,
      "▁Airport": 4420,
      "▁lake": 4421,
      "▁applying": 4422,
      "▁phones": 4423,
      "▁Policy": 4424,
      "08": 4425,
      "▁preparing": 4426,
      "▁harm": 4427,
      "▁fundamental": 4428,
      "▁hang": 4429,
      "▁concert": 4430,
      "▁indicated": 4431,
      "▁Test": 4432,
      "▁satisfaction": 4433,
      "▁Vegas": 4434,
      "▁actor": 4435,
      "▁frequency": 4436,
      "ner": 4437,
      "▁union": 4438,
      "▁Image": 4439,
      "▁entitled": 4440,
      "her": 4441,
      "▁PDF": 4442,
      "▁mm": 4443,
      "▁drinks": 4444,
      "▁personnel": 4445,
      "▁stages": 4446,
      "▁deeper": 4447,
      "▁lowest": 4448,
      "▁estimate": 4449,
      "▁Harry": 4450,
      "▁equally": 4451,
      "▁Scotland": 4452,
      "▁raising": 4453,
      "▁ceiling": 4454,
      "▁orange": 4455,
      "http": 4456,
      "95": 4457,
      "▁chest": 4458,
      "▁speaker": 4459,
      "▁stations": 4460,
      "▁attempts": 4461,
      "▁tracking": 4462,
      "▁cuts": 4463,
      "▁Ideas": 4464,
      "▁smoke": 4465,
      "▁Agency": 4466,
      "▁Silver": 4467,
      "▁Hollywood": 4468,
      "▁Help": 4469,
      "▁Max": 4470,
      "▁Everything": 4471,
      "▁bond": 4472,
      "▁packed": 4473,
      "▁egg": 4474,
      "▁Capital": 4475,
      "▁buyers": 4476,
      "▁rapidly": 4477,
      "class": 4478,
      "ING": 4479,
      "▁Administration": 4480,
      "▁flavor": 4481,
      "▁gaming": 4482,
      "▁interaction": 4483,
      "▁arrival": 4484,
      "wood": 4485,
      "▁lifetime": 4486,
      "▁pp": 4487,
      "▁Card": 4488,
      "▁Line": 4489,
      "▁Senior": 4490,
      "▁Professional": 4491,
      "▁suffer": 4492,
      "▁poker": 4493,
      "▁western": 4494,
      "▁farmers": 4495,
      "▁infection": 4496,
      "▁Port": 4497,
      "▁holidays": 4498,
      "▁scores": 4499,
      "▁scope": 4500,
      "▁MP": 4501,
      "li": 4502,
      "▁essentially": 4503,
      "▁errors": 4504,
      "09": 4505,
      "▁introduce": 4506,
      "▁packages": 4507,
      "▁que": 4508,
      "▁Step": 4509,
      "▁organisation": 4510,
      "▁pushed": 4511,
      "led": 4512,
      "▁residence": 4513,
      "▁damaged": 4514,
      "▁worried": 4515,
      "▁Iraq": 4516,
      "▁centers": 4517,
      "▁opposed": 4518,
      "▁asset": 4519,
      "▁mirror": 4520,
      "▁unusual": 4521,
      "▁drama": 4522,
      "▁bird": 4523,
      "▁insight": 4524,
      "That": 4525,
      "▁resort": 4526,
      "▁Drive": 4527,
      "▁improvements": 4528,
      "▁Awards": 4529,
      "▁assistant": 4530,
      "▁mood": 4531,
      "io": 4532,
      "▁conclusion": 4533,
      "▁contribution": 4534,
      "▁lists": 4535,
      "▁seasons": 4536,
      "▁Sarah": 4537,
      "▁lens": 4538,
      "▁heating": 4539,
      "▁viewing": 4540,
      "▁trips": 4541,
      "▁focusing": 4542,
      "▁struck": 4543,
      "▁Among": 4544,
      "▁Quality": 4545,
      "▁LED": 4546,
      "▁column": 4547,
      "▁emails": 4548,
      "▁pump": 4549,
      "▁tie": 4550,
      "▁exceptional": 4551,
      "▁Roman": 4552,
      "q": 4553,
      "▁Medicine": 4554,
      "▁Yeah": 4555,
      "▁prayer": 4556,
      "▁se": 4557,
      "▁beneficial": 4558,
      "06": 4559,
      "▁USB": 4560,
      "▁PA": 4561,
      "▁philosophy": 4562,
      "▁gene": 4563,
      "▁licensed": 4564,
      "▁cabinet": 4565,
      "▁quotes": 4566,
      "▁filling": 4567,
      "▁weak": 4568,
      "▁Film": 4569,
      "▁northern": 4570,
      "▁arrangements": 4571,
      "ment": 4572,
      "▁lets": 4573,
      "▁vegetables": 4574,
      "▁Ministry": 4575,
      "▁container": 4576,
      "▁automatic": 4577,
      "▁define": 4578,
      "▁implemented": 4579,
      "▁telephone": 4580,
      "▁clock": 4581,
      "2018": 4582,
      "▁Need": 4583,
      "▁grab": 4584,
      "▁Sydney": 4585,
      "▁letting": 4586,
      "▁peak": 4587,
      "▁grateful": 4588,
      "▁module": 4589,
      "▁Tour": 4590,
      "▁narrow": 4591,
      "▁confirm": 4592,
      "ion": 4593,
      "long": 4594,
      "▁delay": 4595,
      "▁elegant": 4596,
      "▁prize": 4597,
      "▁reserved": 4598,
      "▁vintage": 4599,
      "over": 4600,
      "▁survive": 4601,
      "style": 4602,
      "▁diversity": 4603,
      "▁64": 4604,
      "▁heavily": 4605,
      "▁Way": 4606,
      "▁dishes": 4607,
      "▁certificate": 4608,
      "▁substantial": 4609,
      "▁sharp": 4610,
      "▁flower": 4611,
      "36": 4612,
      "▁Natural": 4613,
      "▁liability": 4614,
      "ish": 4615,
      "▁branch": 4616,
      "▁attending": 4617,
      "▁Miami": 4618,
      "▁employer": 4619,
      "▁struggling": 4620,
      "▁booking": 4621,
      "▁satisfied": 4622,
      "▁Key": 4623,
      "▁vice": 4624,
      "▁consent": 4625,
      "▁photographs": 4626,
      "▁Safety": 4627,
      "▁basketball": 4628,
      "33": 4629,
      "▁celebration": 4630,
      "▁Country": 4631,
      "ation": 4632,
      "▁Officer": 4633,
      "▁edited": 4634,
      "▁addresses": 4635,
      "▁con": 4636,
      "▁seed": 4637,
      "▁Has": 4638,
      "▁%": 4639,
      "▁Illinois": 4640,
      "▁Square": 4641,
      "▁titles": 4642,
      "▁ill": 4643,
      "▁statistics": 4644,
      "▁Am": 4645,
      "▁emotions": 4646,
      "▁UN": 4647,
      "▁enemy": 4648,
      "07": 4649,
      "▁combine": 4650,
      "▁relax": 4651,
      "▁relation": 4652,
      "▁Las": 4653,
      "▁chairs": 4654,
      "▁1997": 4655,
      "▁loose": 4656,
      "▁nights": 4657,
      "▁Jeff": 4658,
      "▁computers": 4659,
      "▁universe": 4660,
      "▁transmission": 4661,
      "▁fits": 4662,
      "▁anniversary": 4663,
      "▁accordance": 4664,
      "▁Save": 4665,
      "ized": 4666,
      "▁Think": 4667,
      "▁Station": 4668,
      "▁intense": 4669,
      "▁Due": 4670,
      "▁distinct": 4671,
      "▁racing": 4672,
      "use": 4673,
      "▁NO": 4674,
      "▁demonstrate": 4675,
      "▁Furthermore": 4676,
      "▁listing": 4677,
      "▁rarely": 4678,
      "▁losses": 4679,
      "▁decline": 4680,
      "▁1970": 4681,
      "▁Moreover": 4682,
      "▁formula": 4683,
      "▁Pass": 4684,
      "▁wash": 4685,
      "▁engaging": 4686,
      "▁completion": 4687,
      "▁pitch": 4688,
      "▁transactions": 4689,
      "▁Davis": 4690,
      "▁49": 4691,
      "▁Prince": 4692,
      "▁focuses": 4693,
      "▁meets": 4694,
      "▁languages": 4695,
      "▁Chapter": 4696,
      "▁Several": 4697,
      "▁promotion": 4698,
      "▁Kitchen": 4699,
      "▁targeted": 4700,
      "▁List": 4701,
      "point": 4702,
      "▁aims": 4703,
      "▁exception": 4704,
      "▁consultation": 4705,
      "▁nations": 4706,
      "▁Trade": 4707,
      "▁suppliers": 4708,
      "▁layout": 4709,
      "▁Machine": 4710,
      "▁generic": 4711,
      "ko": 4712,
      "▁opinions": 4713,
      "▁Access": 4714,
      "▁Smart": 4715,
      "▁institution": 4716,
      "But": 4717,
      "▁Non": 4718,
      "▁instant": 4719,
      "▁officially": 4720,
      "▁resident": 4721,
      "▁HP": 4722,
      "55": 4723,
      "▁speakers": 4724,
      "▁employed": 4725,
      "▁Miller": 4726,
      "▁Made": 4727,
      "▁Ed": 4728,
      "▁utility": 4729,
      "▁Off": 4730,
      "▁yoga": 4731,
      "▁powers": 4732,
      "▁gay": 4733,
      "▁founder": 4734,
      "▁Learning": 4735,
      "▁exploring": 4736,
      "▁falls": 4737,
      "▁highlight": 4738,
      "▁Fort": 4739,
      "▁surely": 4740,
      "▁alleged": 4741,
      "▁interactive": 4742,
      "▁temperatures": 4743,
      "▁painted": 4744,
      "▁Korean": 4745,
      "ya": 4746,
      "▁tape": 4747,
      "known": 4748,
      "▁Jordan": 4749,
      "â": 4750,
      "▁hat": 4751,
      "▁nose": 4752,
      "▁configuration": 4753,
      "▁compete": 4754,
      "more": 4755,
      "€": 4756,
      "ur": 4757,
      "▁finds": 4758,
      "ro": 4759,
      "▁fiction": 4760,
      "▁aged": 4761,
      "▁juice": 4762,
      "▁moral": 4763,
      "▁danger": 4764,
      "id": 4765,
      "▁Nick": 4766,
      "▁signature": 4767,
      "▁combat": 4768,
      "▁intellectual": 4769,
      "▁pilot": 4770,
      "▁soldiers": 4771,
      "▁Estate": 4772,
      "▁1996": 4773,
      "▁Main": 4774,
      "34": 4775,
      "▁proved": 4776,
      "▁Stephen": 4777,
      "▁Wilson": 4778,
      "▁III": 4779,
      "▁Republicans": 4780,
      "▁Creek": 4781,
      "▁contributions": 4782,
      "▁fewer": 4783,
      "▁medication": 4784,
      "▁Muslim": 4785,
      "▁targets": 4786,
      "▁hall": 4787,
      "▁delivering": 4788,
      "▁cotton": 4789,
      "▁sequence": 4790,
      "▁volunteer": 4791,
      "▁functionality": 4792,
      "▁Sign": 4793,
      "▁aimed": 4794,
      "▁tons": 4795,
      "▁versus": 4796,
      "▁ban": 4797,
      "cm": 4798,
      "▁Seattle": 4799,
      "▁contracts": 4800,
      "▁Much": 4801,
      "▁Website": 4802,
      "▁Turkey": 4803,
      "▁singer": 4804,
      "▁circle": 4805,
      "▁reply": 4806,
      "▁grass": 4807,
      "▁44": 4808,
      "▁~": 4809,
      "▁permit": 4810,
      "▁120": 4811,
      "▁panels": 4812,
      "▁investments": 4813,
      "▁Rs": 4814,
      "▁accuracy": 4815,
      "▁colours": 4816,
      "▁rapid": 4817,
      "▁promoting": 4818,
      "▁stability": 4819,
      "ization": 4820,
      "hour": 4821,
      "▁Working": 4822,
      "▁circuit": 4823,
      "▁engines": 4824,
      "▁Kong": 4825,
      "▁Syria": 4826,
      "▁plain": 4827,
      "▁flexibility": 4828,
      "new": 4829,
      "▁pregnancy": 4830,
      "▁cameras": 4831,
      "▁viagra": 4832,
      "life": 4833,
      "▁producer": 4834,
      "800": 4835,
      "▁measured": 4836,
      "▁seeds": 4837,
      "▁terrible": 4838,
      "▁resulted": 4839,
      "ni": 4840,
      "‘": 4841,
      "▁charity": 4842,
      "▁decrease": 4843,
      "▁formation": 4844,
      "▁declared": 4845,
      "▁announcement": 4846,
      "▁calm": 4847,
      "▁Model": 4848,
      "▁segment": 4849,
      "▁singing": 4850,
      "▁guaranteed": 4851,
      "▁Never": 4852,
      "▁OS": 4853,
      "▁immigration": 4854,
      "▁inform": 4855,
      "▁elsewhere": 4856,
      "▁Dave": 4857,
      "▁ownership": 4858,
      "▁Elizabeth": 4859,
      "▁excess": 4860,
      "▁boss": 4861,
      "▁flag": 4862,
      "▁genuine": 4863,
      "▁bid": 4864,
      "▁DVD": 4865,
      "▁mechanism": 4866,
      "▁accommodation": 4867,
      "▁Eric": 4868,
      "▁sleeping": 4869,
      "▁pregnant": 4870,
      "▁conventional": 4871,
      "▁solo": 4872,
      "|": 4873,
      "▁mill": 4874,
      "▁Nothing": 4875,
      "▁assembly": 4876,
      "▁Columbia": 4877,
      "▁equity": 4878,
      "▁Miss": 4879,
      "▁holes": 4880,
      "▁journal": 4881,
      "▁95": 4882,
      "▁describes": 4883,
      "▁Limited": 4884,
      "▁250": 4885,
      "▁operated": 4886,
      "▁Jason": 4887,
      "▁divided": 4888,
      "▁dual": 4889,
      "▁End": 4890,
      "▁principal": 4891,
      "▁sin": 4892,
      "▁Box": 4893,
      "▁visits": 4894,
      "400": 4895,
      "▁copies": 4896,
      "▁Give": 4897,
      "making": 4898,
      "▁Product": 4899,
      "▁Credit": 4900,
      "▁emerging": 4901,
      "▁carpet": 4902,
      "▁amongst": 4903,
      "▁convenience": 4904,
      "▁Civil": 4905,
      "▁designers": 4906,
      "▁certification": 4907,
      "▁Sale": 4908,
      "▁periods": 4909,
      "▁involve": 4910,
      "▁Hong": 4911,
      "▁coat": 4912,
      "▁talented": 4913,
      "▁Travel": 4914,
      "▁skilled": 4915,
      "ey": 4916,
      "▁ear": 4917,
      "▁pushing": 4918,
      "▁Tony": 4919,
      "▁participating": 4920,
      "38": 4921,
      "▁golden": 4922,
      "▁mistakes": 4923,
      "▁ALL": 4924,
      "▁Samsung": 4925,
      "▁weird": 4926,
      "▁Standard": 4927,
      "▁distributed": 4928,
      "▁Victoria": 4929,
      "▁expanded": 4930,
      "▁belt": 4931,
      "▁responses": 4932,
      "▁Pennsylvania": 4933,
      "▁Tech": 4934,
      "▁bound": 4935,
      "▁Oklahoma": 4936,
      "▁commission": 4937,
      "▁abilities": 4938,
      "▁Theatre": 4939,
      "▁contributed": 4940,
      "▁Diego": 4941,
      "▁Saint": 4942,
      "▁voted": 4943,
      "39": 4944,
      "▁Agreement": 4945,
      "▁tied": 4946,
      "▁Minnesota": 4947,
      "▁fired": 4948,
      "▁coal": 4949,
      "▁Products": 4950,
      "▁answered": 4951,
      "▁chronic": 4952,
      "▁captured": 4953,
      "ah": 4954,
      "▁Available": 4955,
      "▁denied": 4956,
      "▁performances": 4957,
      "▁Sir": 4958,
      "▁Low": 4959,
      "▁laugh": 4960,
      "▁discussions": 4961,
      "▁Kelly": 4962,
      "▁ought": 4963,
      "▁principle": 4964,
      "▁hopefully": 4965,
      "▁attract": 4966,
      "▁puts": 4967,
      "▁broadcast": 4968,
      "▁ministry": 4969,
      "▁experiment": 4970,
      "au": 4971,
      "▁Annual": 4972,
      "▁interviews": 4973,
      "▁layers": 4974,
      "▁directions": 4975,
      "▁overnight": 4976,
      "▁refused": 4977,
      "▁explanation": 4978,
      "▁impressed": 4979,
      "▁difficulty": 4980,
      "▁graphic": 4981,
      "▁gym": 4982,
      "▁respective": 4983,
      "▁smell": 4984,
      "▁1000": 4985,
      "▁clubs": 4986,
      "▁1995": 4987,
      "▁Below": 4988,
      "▁Choose": 4989,
      "▁subsequent": 4990,
      "mg": 4991,
      "▁rolling": 4992,
      "▁Aug": 4993,
      "▁signing": 4994,
      "▁picking": 4995,
      "▁Latin": 4996,
      "GB": 4997,
      "▁passes": 4998,
      "art": 4999,
      "▁baseball": 5000,
      "▁accounting": 5001,
      "▁icon": 5002,
      "▁Austin": 5003,
      "▁Type": 5004,
      "▁encounter": 5005,
      "▁tab": 5006,
      "▁addressed": 5007,
      "▁regulatory": 5008,
      "▁admitted": 5009,
      "▁developer": 5010,
      "▁settlement": 5011,
      "▁pursue": 5012,
      "▁overcome": 5013,
      "▁continuous": 5014,
      "▁lab": 5015,
      "▁Islamic": 5016,
      "▁Winter": 5017,
      "▁Heart": 5018,
      "▁importantly": 5019,
      "▁presidential": 5020,
      "▁hide": 5021,
      "▁Manchester": 5022,
      "▁creativity": 5023,
      "▁adjust": 5024,
      "▁opens": 5025,
      "▁absence": 5026,
      "▁Follow": 5027,
      "▁responded": 5028,
      "made": 5029,
      "▁Customer": 5030,
      "▁tube": 5031,
      "▁grey": 5032,
      "▁coaching": 5033,
      "▁smartphone": 5034,
      "▁impression": 5035,
      "▁cm": 5036,
      "▁mountains": 5037,
      "▁relating": 5038,
      "▁Kids": 5039,
      "▁diabetes": 5040,
      "▁conversion": 5041,
      "▁laser": 5042,
      "inch": 5043,
      "▁safely": 5044,
      "▁abroad": 5045,
      "▁evolution": 5046,
      "▁Could": 5047,
      "▁provision": 5048,
      "▁mess": 5049,
      "▁expense": 5050,
      "When": 5051,
      "▁somebody": 5052,
      "▁wet": 5053,
      "▁modified": 5054,
      "▁examination": 5055,
      "▁gathered": 5056,
      "▁rough": 5057,
      "▁destroyed": 5058,
      "▁angle": 5059,
      "▁copyright": 5060,
      "▁maps": 5061,
      "▁invite": 5062,
      "▁brush": 5063,
      "▁packaging": 5064,
      "▁Things": 5065,
      "▁drove": 5066,
      "▁ON": 5067,
      "▁52": 5068,
      "▁disaster": 5069,
      "▁2020": 5070,
      "▁regulation": 5071,
      "▁Change": 5072,
      "▁consistently": 5073,
      "▁der": 5074,
      "▁odd": 5075,
      "▁venture": 5076,
      "▁reform": 5077,
      "▁finishing": 5078,
      "▁Sorry": 5079,
      "▁Philadelphia": 5080,
      "▁Village": 5081,
      "▁governments": 5082,
      "▁fake": 5083,
      "▁Easy": 5084,
      "▁Action": 5085,
      "▁boards": 5086,
      "▁Lady": 5087,
      "▁fingers": 5088,
      "▁Forest": 5089,
      "▁highlights": 5090,
      "▁brothers": 5091,
      "▁estimates": 5092,
      "et": 5093,
      "▁bands": 5094,
      "▁inter": 5095,
      "▁bench": 5096,
      "▁scenario": 5097,
      "ter": 5098,
      "▁Fair": 5099,
      "▁Atlanta": 5100,
      "▁themes": 5101,
      "▁cheaper": 5102,
      "▁Personal": 5103,
      "star": 5104,
      "▁examine": 5105,
      "▁passionate": 5106,
      "▁behaviour": 5107,
      "▁hiring": 5108,
      "▁Mount": 5109,
      "▁composition": 5110,
      "▁ordinary": 5111,
      "▁Bridge": 5112,
      "▁shortly": 5113,
      "▁800": 5114,
      "▁Kansas": 5115,
      "▁happiness": 5116,
      "from": 5117,
      "▁argue": 5118,
      "▁roots": 5119,
      "▁depend": 5120,
      "▁dose": 5121,
      "▁Studio": 5122,
      "▁barely": 5123,
      "▁Patrick": 5124,
      "▁votes": 5125,
      "▁sole": 5126,
      "▁burning": 5127,
      "▁instrument": 5128,
      "▁baking": 5129,
      "▁flash": 5130,
      "▁trusted": 5131,
      "▁finger": 5132,
      "ier": 5133,
      "▁burn": 5134,
      "▁agenda": 5135,
      "▁wisdom": 5136,
      "▁shock": 5137,
      "▁matching": 5138,
      "▁41": 5139,
      "▁eliminate": 5140,
      "▁fault": 5141,
      "▁complaint": 5142,
      "▁announce": 5143,
      "▁Oregon": 5144,
      "▁wheels": 5145,
      "▁applies": 5146,
      "▁voting": 5147,
      "▁resolve": 5148,
      "▁babies": 5149,
      "▁acquire": 5150,
      "▁retired": 5151,
      "ine": 5152,
      "44": 5153,
      "▁decor": 5154,
      "▁insights": 5155,
      "▁gonna": 5156,
      "▁banking": 5157,
      "▁warranty": 5158,
      "▁diagnosis": 5159,
      "▁instruments": 5160,
      "▁representing": 5161,
      "▁und": 5162,
      "▁Description": 5163,
      "▁Ray": 5164,
      "▁dramatic": 5165,
      "▁Age": 5166,
      "ri": 5167,
      "▁Dark": 5168,
      "town": 5169,
      "▁ranging": 5170,
      "▁settled": 5171,
      "▁promised": 5172,
      "▁el": 5173,
      "▁Exchange": 5174,
      "To": 5175,
      "▁Sales": 5176,
      "▁texture": 5177,
      "▁inventory": 5178,
      "▁_": 5179,
      "▁Dallas": 5180,
      "▁flights": 5181,
      "▁substance": 5182,
      "se": 5183,
      "▁poverty": 5184,
      "▁sensor": 5185,
      "▁pray": 5186,
      "▁Ontario": 5187,
      "▁knee": 5188,
      "▁Mother": 5189,
      "▁representation": 5190,
      "ler": 5191,
      "▁43": 5192,
      "▁desktop": 5193,
      "▁stocks": 5194,
      "▁Gallery": 5195,
      "▁penalty": 5196,
      "▁gather": 5197,
      "▁finest": 5198,
      "▁surrounded": 5199,
      "▁Select": 5200,
      "lin": 5201,
      "▁territory": 5202,
      "For": 5203,
      "▁repeat": 5204,
      "▁discovery": 5205,
      "di": 5206,
      "▁Posted": 5207,
      "▁Jews": 5208,
      "▁wider": 5209,
      "▁acquisition": 5210,
      "49": 5211,
      "▁hardly": 5212,
      "▁evaluate": 5213,
      "site": 5214,
      "▁assess": 5215,
      "▁Besides": 5216,
      "▁hearts": 5217,
      "▁parameters": 5218,
      "▁concentration": 5219,
      "▁unlikely": 5220,
      "▁initiatives": 5221,
      "▁meaningful": 5222,
      "▁courts": 5223,
      "▁clicking": 5224,
      "▁globe": 5225,
      "▁wise": 5226,
      "▁gathering": 5227,
      "▁advantages": 5228,
      "▁99": 5229,
      "▁whereas": 5230,
      "▁employers": 5231,
      "▁Baby": 5232,
      "▁muscles": 5233,
      "▁Within": 5234,
      "▁supporters": 5235,
      "▁signals": 5236,
      "▁Figure": 5237,
      "▁remarkable": 5238,
      "▁servers": 5239,
      "▁LA": 5240,
      "▁grounds": 5241,
      "▁trailer": 5242,
      "▁recall": 5243,
      "▁visitor": 5244,
      "▁oral": 5245,
      "▁fabulous": 5246,
      "▁movements": 5247,
      "▁campaigns": 5248,
      "▁scoring": 5249,
      "▁universities": 5250,
      "As": 5251,
      "▁experiencing": 5252,
      "▁representatives": 5253,
      "▁Create": 5254,
      "How": 5255,
      "▁Moon": 5256,
      "▁reserve": 5257,
      "▁keys": 5258,
      "▁Casino": 5259,
      "est": 5260,
      "▁frequent": 5261,
      "▁Cloud": 5262,
      "▁survival": 5263,
      "▁nursing": 5264,
      "▁documentation": 5265,
      "▁tap": 5266,
      "▁prescription": 5267,
      "▁Early": 5268,
      "▁lawyers": 5269,
      "▁constructed": 5270,
      "▁deserve": 5271,
      "▁Per": 5272,
      "▁narrative": 5273,
      "So": 5274,
      "▁rated": 5275,
      "▁witness": 5276,
      "▁mouse": 5277,
      "▁Brazil": 5278,
      "▁moon": 5279,
      "▁stainless": 5280,
      "▁fluid": 5281,
      "▁Computer": 5282,
      "▁romantic": 5283,
      "▁hitting": 5284,
      "▁instantly": 5285,
      "▁Sky": 5286,
      "▁Bell": 5287,
      "▁roughly": 5288,
      "▁editing": 5289,
      "▁removing": 5290,
      "▁math": 5291,
      "▁assault": 5292,
      "▁organisations": 5293,
      "▁actively": 5294,
      "▁demonstrated": 5295,
      "▁breaks": 5296,
      "▁Nations": 5297,
      "▁Field": 5298,
      "▁1994": 5299,
      "▁precious": 5300,
      "▁Vice": 5301,
      "▁MS": 5302,
      "month": 5303,
      "42": 5304,
      "▁possibilities": 5305,
      "▁blame": 5306,
      "▁Student": 5307,
      "▁workshops": 5308,
      "▁displays": 5309,
      "▁summary": 5310,
      "▁duties": 5311,
      "▁investing": 5312,
      "called": 5313,
      "▁Mill": 5314,
      "▁reverse": 5315,
      "▁Retrieved": 5316,
      "▁Saudi": 5317,
      "▁BBC": 5318,
      "▁worship": 5319,
      "▁loud": 5320,
      "▁workplace": 5321,
      "▁Member": 5322,
      "▁exit": 5323,
      "▁arrest": 5324,
      "▁virtually": 5325,
      "▁Five": 5326,
      "▁Currently": 5327,
      "▁drives": 5328,
      "▁Members": 5329,
      "▁fraud": 5330,
      "▁Israeli": 5331,
      "▁worn": 5332,
      "▁600": 5333,
      "▁repairs": 5334,
      "▁sofa": 5335,
      "▁virus": 5336,
      "▁cats": 5337,
      "▁convert": 5338,
      "▁Private": 5339,
      "▁makeup": 5340,
      "▁Protection": 5341,
      "▁environments": 5342,
      "this": 5343,
      "▁indicates": 5344,
      "▁objectives": 5345,
      "▁Anyone": 5346,
      "▁Really": 5347,
      "▁curious": 5348,
      "▁minimal": 5349,
      "▁vulnerable": 5350,
      "▁conversations": 5351,
      "▁le": 5352,
      "▁offensive": 5353,
      "48": 5354,
      "▁angry": 5355,
      "▁1960": 5356,
      "▁waves": 5357,
      "▁unlike": 5358,
      "ft": 5359,
      "▁weapon": 5360,
      "▁variable": 5361,
      "▁productivity": 5362,
      "▁Camp": 5363,
      "▁tries": 5364,
      "▁Hello": 5365,
      "▁»": 5366,
      "▁prominent": 5367,
      "▁grace": 5368,
      "▁minds": 5369,
      "ha": 5370,
      "▁instruction": 5371,
      "▁Story": 5372,
      "▁investigate": 5373,
      "▁hip": 5374,
      "▁blow": 5375,
      "▁succeed": 5376,
      "▁conservative": 5377,
      "▁appreciated": 5378,
      "▁stomach": 5379,
      "▁pleasant": 5380,
      "▁supplier": 5381,
      "▁restrictions": 5382,
      "▁reviewed": 5383,
      "▁quantity": 5384,
      "▁des": 5385,
      "▁del": 5386,
      "▁asks": 5387,
      "▁Hey": 5388,
      "▁operational": 5389,
      "▁judgment": 5390,
      "▁Further": 5391,
      "▁origin": 5392,
      "▁threats": 5393,
      "▁passengers": 5394,
      "▁horses": 5395,
      "Re": 5396,
      "▁MA": 5397,
      "▁massage": 5398,
      "don": 5399,
      "▁nobody": 5400,
      "▁mechanical": 5401,
      "▁cooperation": 5402,
      "▁newsletter": 5403,
      "▁46": 5404,
      "▁Blog": 5405,
      "▁troops": 5406,
      "▁worker": 5407,
      "▁Ball": 5408,
      "▁generations": 5409,
      "▁Beautiful": 5410,
      "▁administrative": 5411,
      "▁champion": 5412,
      "▁artistic": 5413,
      "▁Simply": 5414,
      "izing": 5415,
      "▁Collection": 5416,
      "▁coloring": 5417,
      "▁Attorney": 5418,
      "▁hunting": 5419,
      "▁physically": 5420,
      "▁actors": 5421,
      "37": 5422,
      "▁pin": 5423,
      "▁Lewis": 5424,
      "▁du": 5425,
      "▁defeat": 5426,
      "▁ruling": 5427,
      "▁involvement": 5428,
      "▁01": 5429,
      "▁fascinating": 5430,
      "▁invention": 5431,
      "▁rescue": 5432,
      "▁symbol": 5433,
      "▁publicly": 5434,
      "bit": 5435,
      "▁rubber": 5436,
      "▁Simon": 5437,
      "▁Express": 5438,
      "▁publishing": 5439,
      "▁plug": 5440,
      "▁dozen": 5441,
      "▁Finance": 5442,
      "▁iPad": 5443,
      "▁defensive": 5444,
      "▁Name": 5445,
      "▁jewelry": 5446,
      "▁Nature": 5447,
      "ke": 5448,
      "▁wishes": 5449,
      "▁Memorial": 5450,
      "▁Edition": 5451,
      "▁AT": 5452,
      "▁Christians": 5453,
      "▁marijuana": 5454,
      "▁winners": 5455,
      "▁heritage": 5456,
      "US": 5457,
      "▁hired": 5458,
      "`": 5459,
      "▁Farm": 5460,
      "▁restore": 5461,
      "▁recover": 5462,
      "foot": 5463,
      "▁Money": 5464,
      "▁spin": 5465,
      "American": 5466,
      "▁athletes": 5467,
      "▁durable": 5468,
      "▁enhanced": 5469,
      "▁thinks": 5470,
      "▁transformation": 5471,
      "▁sink": 5472,
      "▁utilize": 5473,
      "▁Given": 5474,
      "▁profits": 5475,
      "▁immune": 5476,
      "minute": 5477,
      "▁accommodate": 5478,
      "▁exercises": 5479,
      "▁portable": 5480,
      "▁Allen": 5481,
      "▁pdf": 5482,
      "▁reception": 5483,
      "▁Later": 5484,
      "▁Tax": 5485,
      "il": 5486,
      "▁forecast": 5487,
      "▁salary": 5488,
      "▁indoor": 5489,
      "▁nervous": 5490,
      "▁Study": 5491,
      "▁Unlike": 5492,
      "▁translation": 5493,
      "▁toys": 5494,
      "▁pipe": 5495,
      "▁rank": 5496,
      "▁sum": 5497,
      "▁Mass": 5498,
      "▁contents": 5499,
      "▁writes": 5500,
      "▁tablet": 5501,
      "▁gate": 5502,
      "▁pen": 5503,
      "▁stylish": 5504,
      "▁reward": 5505,
      "▁logic": 5506,
      "▁Delhi": 5507,
      "▁divorce": 5508,
      "▁WordPress": 5509,
      "▁Books": 5510,
      "▁inspection": 5511,
      "▁ships": 5512,
      "▁ft": 5513,
      "▁directory": 5514,
      "▁opt": 5515,
      "▁Ann": 5516,
      "▁province": 5517,
      "▁Navy": 5518,
      "▁backup": 5519,
      "▁thoroughly": 5520,
      "▁folder": 5521,
      "▁ok": 5522,
      "▁networking": 5523,
      "▁hosts": 5524,
      "▁sorts": 5525,
      "▁Perfect": 5526,
      "▁Economic": 5527,
      "▁lying": 5528,
      "▁authentic": 5529,
      "▁tears": 5530,
      "▁trigger": 5531,
      "▁provisions": 5532,
      "▁possession": 5533,
      "▁subscription": 5534,
      "▁fiber": 5535,
      "▁AI": 5536,
      "▁Run": 5537,
      "▁floors": 5538,
      "▁templates": 5539,
      "▁Solutions": 5540,
      "▁duration": 5541,
      "▁artificial": 5542,
      "▁ratings": 5543,
      "▁genetic": 5544,
      "▁iOS": 5545,
      "▁curriculum": 5546,
      "box": 5547,
      "▁cart": 5548,
      "▁Premier": 5549,
      "▁comedy": 5550,
      "▁intention": 5551,
      "▁locally": 5552,
      "▁integrity": 5553,
      "▁bug": 5554,
      "▁unexpected": 5555,
      "▁collective": 5556,
      "▁apparent": 5557,
      "▁Sure": 5558,
      "▁Championship": 5559,
      "▁emphasis": 5560,
      "▁Server": 5561,
      "▁publish": 5562,
      "head": 5563,
      "▁loaded": 5564,
      "▁beds": 5565,
      "▁bacteria": 5566,
      "▁extraordinary": 5567,
      "▁Li": 5568,
      "▁exterior": 5569,
      "▁Number": 5570,
      "run": 5571,
      "▁Wisconsin": 5572,
      "▁spectacular": 5573,
      "▁tackle": 5574,
      "▁Egypt": 5575,
      "den": 5576,
      "▁ladies": 5577,
      "▁Share": 5578,
      "▁Overall": 5579,
      "▁meters": 5580,
      "▁screening": 5581,
      "▁protecting": 5582,
      "▁Wales": 5583,
      "▁underlying": 5584,
      "▁Ten": 5585,
      "▁occasionally": 5586,
      "▁dirt": 5587,
      "ate": 5588,
      "▁regime": 5589,
      "▁suite": 5590,
      "▁blogs": 5591,
      "▁Always": 5592,
      "▁Magazine": 5593,
      "64": 5594,
      "▁defend": 5595,
      "▁Construction": 5596,
      "▁Anyway": 5597,
      "▁Ocean": 5598,
      "▁Anderson": 5599,
      "▁enabled": 5600,
      "▁patio": 5601,
      "▁intervention": 5602,
      "▁oldest": 5603,
      "▁disorder": 5604,
      "ti": 5605,
      "▁Ask": 5606,
      "▁Analysis": 5607,
      "how": 5608,
      "scale": 5609,
      "▁Cancer": 5610,
      "▁processed": 5611,
      "▁races": 5612,
      "profit": 5613,
      "▁smoking": 5614,
      "▁sheets": 5615,
      "▁tile": 5616,
      "▁interact": 5617,
      "▁Bio": 5618,
      "▁scan": 5619,
      "▁landing": 5620,
      "▁47": 5621,
      "▁dialogue": 5622,
      "▁spoken": 5623,
      "▁Experience": 5624,
      "▁shade": 5625,
      "▁followers": 5626,
      "▁rail": 5627,
      "▁compatible": 5628,
      "▁attempted": 5629,
      "▁Nice": 5630,
      "▁NEW": 5631,
      "▁slide": 5632,
      "▁mystery": 5633,
      "▁walks": 5634,
      "▁balanced": 5635,
      "▁binary": 5636,
      "▁Atlantic": 5637,
      "▁aggressive": 5638,
      "▁stops": 5639,
      "▁produces": 5640,
      "▁celebrated": 5641,
      "▁buyer": 5642,
      "▁analysts": 5643,
      "▁confused": 5644,
      "▁yield": 5645,
      "▁fiscal": 5646,
      "▁expanding": 5647,
      "▁Industry": 5648,
      "▁sees": 5649,
      "▁casual": 5650,
      "▁photographer": 5651,
      "▁armed": 5652,
      "▁hero": 5653,
      "ting": 5654,
      "▁trials": 5655,
      "▁spare": 5656,
      "▁Self": 5657,
      "▁occasions": 5658,
      "▁engineers": 5659,
      "▁beautifully": 5660,
      "▁operator": 5661,
      "▁Orange": 5662,
      "▁connecting": 5663,
      "hand": 5664,
      "▁Level": 5665,
      "▁ranked": 5666,
      "2017": 5667,
      "▁Enter": 5668,
      "▁thrown": 5669,
      "▁Stock": 5670,
      "▁transferred": 5671,
      "▁Matthew": 5672,
      "▁designing": 5673,
      "▁differently": 5674,
      "▁User": 5675,
      "▁Child": 5676,
      "▁habits": 5677,
      "▁neutral": 5678,
      "▁Mom": 5679,
      "▁Color": 5680,
      "▁Vietnam": 5681,
      "▁powered": 5682,
      "▁Large": 5683,
      "▁Halloween": 5684,
      "▁emissions": 5685,
      "▁encouraging": 5686,
      "▁situated": 5687,
      "▁Sen": 5688,
      "▁Put": 5689,
      "▁ignore": 5690,
      "▁beliefs": 5691,
      "▁supplied": 5692,
      "▁anger": 5693,
      "▁spray": 5694,
      "▁transform": 5695,
      "▁pizza": 5696,
      "law": 5697,
      "▁Wild": 5698,
      "con": 5699,
      "▁fallen": 5700,
      "▁surprising": 5701,
      "▁Mini": 5702,
      "▁timing": 5703,
      "▁franchise": 5704,
      "▁workout": 5705,
      "▁newest": 5706,
      "▁Massachusetts": 5707,
      "▁coupon": 5708,
      "▁Moore": 5709,
      "who": 5710,
      "▁Paper": 5711,
      "winning": 5712,
      "▁mounted": 5713,
      "▁cooked": 5714,
      "▁toilet": 5715,
      "▁sing": 5716,
      "▁Season": 5717,
      "46": 5718,
      "▁min": 5719,
      "ham": 5720,
      "▁Wi": 5721,
      "▁Fall": 5722,
      "▁Anthony": 5723,
      "▁Classic": 5724,
      "▁Too": 5725,
      "▁advised": 5726,
      "▁Detroit": 5727,
      "▁arrangement": 5728,
      "▁shapes": 5729,
      "tech": 5730,
      "▁flour": 5731,
      "▁Environmental": 5732,
      "▁financing": 5733,
      "▁dancing": 5734,
      "home": 5735,
      "▁Application": 5736,
      "All": 5737,
      "▁fantasy": 5738,
      "▁facilitate": 5739,
      "▁1993": 5740,
      "▁phrase": 5741,
      "▁85": 5742,
      "▁Melbourne": 5743,
      "▁stupid": 5744,
      "▁copper": 5745,
      "▁Wow": 5746,
      "▁hospitals": 5747,
      "▁delete": 5748,
      "book": 5749,
      "ty": 5750,
      "▁jail": 5751,
      "▁swing": 5752,
      "47": 5753,
      "▁references": 5754,
      "▁figured": 5755,
      "▁uk": 5756,
      "▁Nigeria": 5757,
      "▁sectors": 5758,
      "▁Cape": 5759,
      "▁72": 5760,
      "▁offense": 5761,
      "▁1992": 5762,
      "▁Dog": 5763,
      "▁Indiana": 5764,
      "▁graduated": 5765,
      "▁regards": 5766,
      "▁destroy": 5767,
      "▁Linux": 5768,
      "▁productive": 5769,
      "▁Regional": 5770,
      "▁cruise": 5771,
      "▁competitors": 5772,
      "▁gentle": 5773,
      "▁universal": 5774,
      "▁Major": 5775,
      "▁outfit": 5776,
      "▁anybody": 5777,
      "▁Parliament": 5778,
      "▁accomplish": 5779,
      "▁Foreign": 5780,
      "▁corn": 5781,
      "mo": 5782,
      "▁hill": 5783,
      "▁chemicals": 5784,
      "▁releases": 5785,
      "▁corresponding": 5786,
      "▁placing": 5787,
      "▁compact": 5788,
      "▁adoption": 5789,
      "▁Authority": 5790,
      "▁violent": 5791,
      "▁legacy": 5792,
      "▁fence": 5793,
      "▁Morgan": 5794,
      "▁MD": 5795,
      "▁jacket": 5796,
      "ray": 5797,
      "▁Sept": 5798,
      "▁dependent": 5799,
      "▁locked": 5800,
      "▁carrier": 5801,
      "▁pets": 5802,
      "▁Indeed": 5803,
      "▁API": 5804,
      "▁wildlife": 5805,
      "▁likes": 5806,
      "▁Jane": 5807,
      "▁Advanced": 5808,
      "▁criticism": 5809,
      "59": 5810,
      "▁damages": 5811,
      "▁Forum": 5812,
      "▁Size": 5813,
      "▁expecting": 5814,
      "▁wrap": 5815,
      "▁AC": 5816,
      "▁completing": 5817,
      "▁producers": 5818,
      "▁bold": 5819,
      "▁Band": 5820,
      "▁guns": 5821,
      "▁settle": 5822,
      "▁begun": 5823,
      "▁Assembly": 5824,
      "▁Content": 5825,
      "▁salad": 5826,
      "▁suppose": 5827,
      "▁vertical": 5828,
      "▁Iowa": 5829,
      "▁spectrum": 5830,
      "▁Sciences": 5831,
      "▁loop": 5832,
      "600": 5833,
      "▁collections": 5834,
      "▁Maryland": 5835,
      "world": 5836,
      "▁politicians": 5837,
      "▁chips": 5838,
      "▁bass": 5839,
      "▁interactions": 5840,
      "▁sophisticated": 5841,
      "▁Berlin": 5842,
      "▁refers": 5843,
      "▁boots": 5844,
      "▁Making": 5845,
      "▁comic": 5846,
      "▁solely": 5847,
      "43": 5848,
      "▁specialized": 5849,
      "▁complaints": 5850,
      "▁Cook": 5851,
      "▁Third": 5852,
      "▁Cambridge": 5853,
      "▁Captain": 5854,
      "▁Iron": 5855,
      "▁adequate": 5856,
      "▁crimes": 5857,
      "é": 5858,
      "▁Case": 5859,
      "▁glasses": 5860,
      "▁blind": 5861,
      "▁Dutch": 5862,
      "fi": 5863,
      "▁excitement": 5864,
      "▁da": 5865,
      "▁Golf": 5866,
      "▁knife": 5867,
      "▁parks": 5868,
      "▁vendors": 5869,
      "▁acceptable": 5870,
      "▁generous": 5871,
      "▁shaped": 5872,
      "▁Judge": 5873,
      "▁Fast": 5874,
      "▁intent": 5875,
      "▁deaths": 5876,
      "▁Mo": 5877,
      "▁Alexander": 5878,
      "ize": 5879,
      "▁Sound": 5880,
      "▁theatre": 5881,
      "▁handy": 5882,
      "▁pepper": 5883,
      "▁Mexican": 5884,
      "▁Net": 5885,
      "▁delivers": 5886,
      "▁entity": 5887,
      "▁foam": 5888,
      "▁commit": 5889,
      "▁capability": 5890,
      "▁rolled": 5891,
      "▁upload": 5892,
      "▁disappointed": 5893,
      "▁PS": 5894,
      "▁establishment": 5895,
      "▁enjoyable": 5896,
      "▁boot": 5897,
      "▁Stay": 5898,
      "▁robust": 5899,
      "ng": 5900,
      "▁Howard": 5901,
      "▁tours": 5902,
      "▁popularity": 5903,
      "▁Anti": 5904,
      "▁discounts": 5905,
      "▁bulk": 5906,
      "▁Body": 5907,
      "▁developments": 5908,
      "▁Glass": 5909,
      "▁Writing": 5910,
      "▁declined": 5911,
      "▁accomplished": 5912,
      "▁Creative": 5913,
      "▁piano": 5914,
      "▁difficulties": 5915,
      "▁Death": 5916,
      "▁streaming": 5917,
      "▁SO": 5918,
      "▁Ken": 5919,
      "41": 5920,
      "▁stopping": 5921,
      "▁Jay": 5922,
      "▁promises": 5923,
      "▁Getting": 5924,
      "▁filing": 5925,
      "▁convinced": 5926,
      "▁lasting": 5927,
      "▁Governor": 5928,
      "▁flooring": 5929,
      "▁tension": 5930,
      "▁Assistant": 5931,
      "▁designated": 5932,
      "▁protest": 5933,
      "▁handed": 5934,
      "▁Girl": 5935,
      "ite": 5936,
      "▁prevention": 5937,
      "▁execution": 5938,
      "▁feeding": 5939,
      "▁heaven": 5940,
      "▁preserve": 5941,
      "bar": 5942,
      "▁exclusively": 5943,
      "▁enormous": 5944,
      "▁beef": 5945,
      "▁51": 5946,
      "▁fruits": 5947,
      "game": 5948,
      "she": 5949,
      "▁identification": 5950,
      "▁overseas": 5951,
      "▁ultra": 5952,
      "▁True": 5953,
      "▁episodes": 5954,
      "▁aluminum": 5955,
      "▁repeated": 5956,
      "▁forgotten": 5957,
      "▁Down": 5958,
      "▁Tree": 5959,
      "▁operates": 5960,
      "▁admission": 5961,
      "▁backed": 5962,
      "▁churches": 5963,
      "▁precise": 5964,
      "▁disorders": 5965,
      "▁Industrial": 5966,
      "type": 5967,
      "▁Double": 5968,
      "▁upset": 5969,
      "▁lawsuit": 5970,
      "▁horror": 5971,
      "right": 5972,
      "▁god": 5973,
      "▁paintings": 5974,
      "ant": 5975,
      "▁specialists": 5976,
      "▁artwork": 5977,
      "▁Ever": 5978,
      "▁interpretation": 5979,
      "▁Bowl": 5980,
      "▁clip": 5981,
      "▁Youth": 5982,
      "▁deadline": 5983,
      "▁inspire": 5984,
      "▁Defense": 5985,
      "▁theater": 5986,
      "▁Football": 5987,
      "▁concluded": 5988,
      "▁Pay": 5989,
      "▁bio": 5990,
      "car": 5991,
      "▁garbage": 5992,
      "▁Short": 5993,
      "▁odds": 5994,
      "▁FBI": 5995,
      "▁speaks": 5996,
      "▁suicide": 5997,
      "▁Olympic": 5998,
      "▁trick": 5999,
      "▁diagram": 6000,
      "▁veteran": 6001,
      "▁Alabama": 6002,
      "▁entertaining": 6003,
      "▁washing": 6004,
      "▁detection": 6005,
      "▁overview": 6006,
      "▁Form": 6007,
      "▁considerable": 6008,
      "а": 6009,
      "▁warned": 6010,
      "▁funded": 6011,
      "▁pulling": 6012,
      "ul": 6013,
      "ba": 6014,
      "▁badly": 6015,
      "▁Rome": 6016,
      "▁chairman": 6017,
      "▁sudden": 6018,
      "▁gray": 6019,
      "▁Grant": 6020,
      "▁export": 6021,
      "▁entries": 6022,
      "▁Mayor": 6023,
      "ge": 6024,
      "▁arguments": 6025,
      "date": 6026,
      "▁checks": 6027,
      "▁accompanied": 6028,
      "52": 6029,
      "▁poetry": 6030,
      "▁steady": 6031,
      "▁purchases": 6032,
      "▁junior": 6033,
      "▁assured": 6034,
      "▁ties": 6035,
      "▁relaxing": 6036,
      "▁locate": 6037,
      "▁apple": 6038,
      "▁gains": 6039,
      "▁passenger": 6040,
      "▁structural": 6041,
      "▁directors": 6042,
      "▁climb": 6043,
      "▁retain": 6044,
      "work": 6045,
      "▁parallel": 6046,
      "▁par": 6047,
      "▁nutrition": 6048,
      "▁rush": 6049,
      "▁secured": 6050,
      "▁Clark": 6051,
      "▁dressed": 6052,
      "▁democracy": 6053,
      "▁Resources": 6054,
      "▁photograph": 6055,
      "▁Win": 6056,
      "▁composed": 6057,
      "▁En": 6058,
      "▁edges": 6059,
      "▁bedrooms": 6060,
      "▁Oxford": 6061,
      "▁Cat": 6062,
      "▁ears": 6063,
      "53": 6064,
      "▁Edward": 6065,
      "▁responsibilities": 6066,
      "▁Multi": 6067,
      "▁navigate": 6068,
      "▁attempting": 6069,
      "▁54": 6070,
      "▁Corp": 6071,
      "▁acres": 6072,
      "▁associate": 6073,
      "ce": 6074,
      "▁Plant": 6075,
      "▁rejected": 6076,
      "▁Property": 6077,
      "let": 6078,
      "▁Chair": 6079,
      "▁cry": 6080,
      "▁1991": 6081,
      "▁Son": 6082,
      "▁HIV": 6083,
      "▁steam": 6084,
      "▁neighbors": 6085,
      "▁throwing": 6086,
      "▁caring": 6087,
      "▁Ross": 6088,
      "▁Ave": 6089,
      "▁Total": 6090,
      "▁Whatever": 6091,
      "▁contractor": 6092,
      "▁Along": 6093,
      "▁Job": 6094,
      "▁Tell": 6095,
      "▁slight": 6096,
      "▁Bureau": 6097,
      "▁Anna": 6098,
      "▁cooling": 6099,
      "▁operators": 6100,
      "▁efficiently": 6101,
      "▁nurse": 6102,
      "65": 6103,
      "▁championship": 6104,
      "▁Jean": 6105,
      "▁breathing": 6106,
      "born": 6107,
      "▁balls": 6108,
      "▁patch": 6109,
      "Fi": 6110,
      "▁lease": 6111,
      "▁Channel": 6112,
      "▁satellite": 6113,
      "▁printer": 6114,
      "▁Prior": 6115,
      "▁measurement": 6116,
      "▁permitted": 6117,
      "▁qualify": 6118,
      "▁valued": 6119,
      "▁sits": 6120,
      "▁soup": 6121,
      "▁advise": 6122,
      "▁governor": 6123,
      "▁slots": 6124,
      "▁keyboard": 6125,
      "▁genes": 6126,
      "▁physician": 6127,
      "▁arranged": 6128,
      "▁processor": 6129,
      "▁endless": 6130,
      "▁relaxed": 6131,
      "▁na": 6132,
      "▁Vancouver": 6133,
      "▁Tennessee": 6134,
      "▁soccer": 6135,
      "▁Planning": 6136,
      "▁honestly": 6137,
      "▁destruction": 6138,
      "▁ensures": 6139,
      "▁alert": 6140,
      "▁inspiring": 6141,
      "▁crystal": 6142,
      "▁strip": 6143,
      "2016": 6144,
      "▁wing": 6145,
      "▁carries": 6146,
      "▁keen": 6147,
      "▁affects": 6148,
      "ful": 6149,
      "▁Bad": 6150,
      "ups": 6151,
      "▁shell": 6152,
      "▁twin": 6153,
      "▁plates": 6154,
      "▁passage": 6155,
      "▁centuries": 6156,
      "▁remind": 6157,
      "▁manufactured": 6158,
      "▁precisely": 6159,
      "▁charging": 6160,
      "▁reportedly": 6161,
      "▁magical": 6162,
      "▁Arab": 6163,
      "▁Front": 6164,
      "▁painful": 6165,
      "▁coaches": 6166,
      "▁handled": 6167,
      "▁argued": 6168,
      "▁pants": 6169,
      "▁Chairman": 6170,
      "▁limitations": 6171,
      "▁tune": 6172,
      "party": 6173,
      "▁Reading": 6174,
      "▁Lincoln": 6175,
      "▁genre": 6176,
      "mi": 6177,
      "▁donation": 6178,
      "▁Performance": 6179,
      "ir": 6180,
      "▁PR": 6181,
      "▁tourist": 6182,
      "▁Cover": 6183,
      "▁Unit": 6184,
      "▁shorter": 6185,
      "▁documentary": 6186,
      "▁slip": 6187,
      "▁Kate": 6188,
      "150": 6189,
      "▁assignment": 6190,
      "▁Stop": 6191,
      "▁calculated": 6192,
      "▁AP": 6193,
      "▁Di": 6194,
      "▁File": 6195,
      "▁mount": 6196,
      "▁Rob": 6197,
      "▁allegations": 6198,
      "▁couch": 6199,
      "▁DJ": 6200,
      "▁Luke": 6201,
      "▁Side": 6202,
      "▁tower": 6203,
      "▁Dad": 6204,
      "▁para": 6205,
      "▁travelling": 6206,
      "set": 6207,
      "▁Us": 6208,
      "▁burden": 6209,
      "▁Gary": 6210,
      "▁hook": 6211,
      "▁shelf": 6212,
      "high": 6213,
      "▁tail": 6214,
      "▁com": 6215,
      "▁dear": 6216,
      "▁sixth": 6217,
      "▁fought": 6218,
      "▁Article": 6219,
      "▁intelligent": 6220,
      "▁effectiveness": 6221,
      "▁drops": 6222,
      "▁beans": 6223,
      "▁liver": 6224,
      "ee": 6225,
      "▁Ali": 6226,
      "▁Marine": 6227,
      "▁guides": 6228,
      "▁iconic": 6229,
      "▁Future": 6230,
      "▁vibrant": 6231,
      "▁realistic": 6232,
      "▁humanity": 6233,
      "▁seller": 6234,
      "▁Pat": 6235,
      "▁hence": 6236,
      "▁Missouri": 6237,
      "▁achievement": 6238,
      "▁Vol": 6239,
      "▁dying": 6240,
      "▁margin": 6241,
      "▁independence": 6242,
      "▁FIG": 6243,
      "▁Doctor": 6244,
      "▁subtle": 6245,
      "▁donations": 6246,
      "▁engineer": 6247,
      "▁honey": 6248,
      "▁dimensions": 6249,
      "▁reveals": 6250,
      "▁Empire": 6251,
      "▁Know": 6252,
      "▁enemies": 6253,
      "▁consulting": 6254,
      "▁Records": 6255,
      "▁maker": 6256,
      "▁refund": 6257,
      "▁participated": 6258,
      "▁customized": 6259,
      "▁contractors": 6260,
      "▁trucks": 6261,
      "▁Denver": 6262,
      "im": 6263,
      "▁priced": 6264,
      "▁shoe": 6265,
      "▁silence": 6266,
      "▁disabled": 6267,
      "▁batteries": 6268,
      "▁Better": 6269,
      "▁Galaxy": 6270,
      "▁Bitcoin": 6271,
      "▁imagination": 6272,
      "▁strengthen": 6273,
      "▁credits": 6274,
      "km": 6275,
      "▁spokesman": 6276,
      "▁relate": 6277,
      "▁Sony": 6278,
      "▁blessed": 6279,
      "51": 6280,
      "▁cultures": 6281,
      "▁waters": 6282,
      "▁surfaces": 6283,
      "▁wrapped": 6284,
      "▁Kit": 6285,
      "▁loads": 6286,
      "▁buttons": 6287,
      "▁chip": 6288,
      "▁peaceful": 6289,
      "56": 6290,
      "▁stepped": 6291,
      "▁FL": 6292,
      "ford": 6293,
      "▁fitted": 6294,
      "such": 6295,
      "▁alike": 6296,
      "▁BC": 6297,
      "▁clinic": 6298,
      "▁Rather": 6299,
      "▁amenities": 6300,
      "▁frames": 6301,
      "▁thirty": 6302,
      "▁affairs": 6303,
      "▁terminal": 6304,
      "▁temple": 6305,
      "▁import": 6306,
      "▁Easter": 6307,
      "▁handful": 6308,
      "▁Dean": 6309,
      "▁density": 6310,
      "▁]": 6311,
      "▁fancy": 6312,
      "She": 6313,
      "▁Crusher": 6314,
      "▁moisture": 6315,
      "only": 6316,
      "▁extract": 6317,
      "▁Gas": 6318,
      "New": 6319,
      "▁bottles": 6320,
      "▁authorized": 6321,
      "▁threw": 6322,
      "One": 6323,
      "▁grid": 6324,
      "ability": 6325,
      "▁stolen": 6326,
      "250": 6327,
      "▁appliances": 6328,
      "wide": 6329,
      "▁biological": 6330,
      "▁Email": 6331,
      "▁psychological": 6332,
      "2015": 6333,
      "▁musicians": 6334,
      "ii": 6335,
      "▁tooth": 6336,
      "▁discussing": 6337,
      "html": 6338,
      "▁Upon": 6339,
      "▁outer": 6340,
      "▁requiring": 6341,
      "▁marine": 6342,
      "▁Jon": 6343,
      "▁Wars": 6344,
      "▁Common": 6345,
      "▁collecting": 6346,
      "ER": 6347,
      "▁Final": 6348,
      "▁Talk": 6349,
      "▁selecting": 6350,
      "▁controller": 6351,
      "▁Constitution": 6352,
      "▁1950": 6353,
      "▁derived": 6354,
      "▁corruption": 6355,
      "what": 6356,
      "▁branches": 6357,
      "▁gardens": 6358,
      "▁oh": 6359,
      "▁retailers": 6360,
      "▁dozens": 6361,
      "▁Andy": 6362,
      "▁failing": 6363,
      "▁exhibit": 6364,
      "▁superb": 6365,
      "they": 6366,
      "▁purple": 6367,
      "▁addiction": 6368,
      "▁converted": 6369,
      "▁quit": 6370,
      "▁proceed": 6371,
      "▁embrace": 6372,
      "▁lately": 6373,
      "Our": 6374,
      "▁unfortunately": 6375,
      "▁discipline": 6376,
      "▁shed": 6377,
      "▁comply": 6378,
      "▁progressive": 6379,
      "▁tourism": 6380,
      "▁Phil": 6381,
      "▁binding": 6382,
      "▁exploration": 6383,
      "▁Custom": 6384,
      "▁Justin": 6385,
      "▁frozen": 6386,
      "▁Friends": 6387,
      "▁Affairs": 6388,
      "▁acceptance": 6389,
      "▁56": 6390,
      "▁oxygen": 6391,
      "▁profession": 6392,
      "▁fastest": 6393,
      "▁treating": 6394,
      "▁titled": 6395,
      "54": 6396,
      "▁striking": 6397,
      "▁towns": 6398,
      "▁gently": 6399,
      "▁Commercial": 6400,
      "▁NC": 6401,
      "▁Sub": 6402,
      "▁Scottish": 6403,
      "▁Kentucky": 6404,
      "▁possess": 6405,
      "▁Castle": 6406,
      "za": 6407,
      "▁sized": 6408,
      "▁reminded": 6409,
      "▁memorable": 6410,
      "▁rocks": 6411,
      "▁shelter": 6412,
      "▁beaches": 6413,
      "▁incorporate": 6414,
      "▁bite": 6415,
      "▁separated": 6416,
      "▁Reserve": 6417,
      "▁TX": 6418,
      "▁thesis": 6419,
      "▁moderate": 6420,
      "▁dont": 6421,
      "▁essays": 6422,
      "▁timely": 6423,
      "▁Dumpster": 6424,
      "▁suspension": 6425,
      "▁alarm": 6426,
      "▁wherever": 6427,
      "▁identifying": 6428,
      "▁Ph": 6429,
      "▁Hills": 6430,
      "▁disability": 6431,
      "can": 6432,
      "▁53": 6433,
      "▁achieving": 6434,
      "▁pollution": 6435,
      "▁Six": 6436,
      "being": 6437,
      "▁im": 6438,
      "▁mattress": 6439,
      "▁footage": 6440,
      "▁Something": 6441,
      "▁voices": 6442,
      "▁motivation": 6443,
      "▁pour": 6444,
      "▁NBA": 6445,
      "just": 6446,
      "▁determination": 6447,
      "▁counts": 6448,
      "▁ebook": 6449,
      "▁squad": 6450,
      "▁Hand": 6451,
      "▁Harris": 6452,
      "▁garlic": 6453,
      "▁Simple": 6454,
      "▁seemingly": 6455,
      "▁conservation": 6456,
      "▁agricultural": 6457,
      "▁departments": 6458,
      "▁width": 6459,
      "▁placement": 6460,
      "▁Inter": 6461,
      "▁VA": 6462,
      "▁tale": 6463,
      "▁recommendation": 6464,
      "▁demanding": 6465,
      "▁remembered": 6466,
      "ists": 6467,
      "▁eastern": 6468,
      "ana": 6469,
      "▁silent": 6470,
      "▁blocked": 6471,
      "▁Ma": 6472,
      "▁personalized": 6473,
      "▁stem": 6474,
      "▁flood": 6475,
      "▁Magic": 6476,
      "▁Anne": 6477,
      "▁nicely": 6478,
      "▁mainstream": 6479,
      "▁arrange": 6480,
      "▁Gen": 6481,
      "▁anytime": 6482,
      "▁dirty": 6483,
      "▁competing": 6484,
      "▁pic": 6485,
      "▁instances": 6486,
      "▁Labour": 6487,
      "▁mild": 6488,
      "▁secretary": 6489,
      "▁Hard": 6490,
      "▁beneath": 6491,
      "▁experiments": 6492,
      "▁z": 6493,
      "round": 6494,
      "▁beloved": 6495,
      "▁emerged": 6496,
      "▁Lane": 6497,
      "▁BE": 6498,
      "▁basement": 6499,
      "top": 6500,
      "▁Complete": 6501,
      "▁grain": 6502,
      "▁drag": 6503,
      "ac": 6504,
      "▁Ron": 6505,
      "▁defence": 6506,
      "▁1989": 6507,
      "▁Bo": 6508,
      "▁repeatedly": 6509,
      "▁assumed": 6510,
      "board": 6511,
      "▁Terms": 6512,
      "▁Far": 6513,
      "▁laboratory": 6514,
      "▁Located": 6515,
      "▁optimal": 6516,
      "▁diameter": 6517,
      "▁automated": 6518,
      "Do": 6519,
      "▁experimental": 6520,
      "▁Portland": 6521,
      "▁restoration": 6522,
      "▁fitting": 6523,
      "▁diagnosed": 6524,
      "▁strive": 6525,
      "57": 6526,
      "▁violation": 6527,
      "▁corporations": 6528,
      "▁referring": 6529,
      "▁HR": 6530,
      "▁medications": 6531,
      "▁couples": 6532,
      "ary": 6533,
      "▁Utah": 6534,
      "▁hoped": 6535,
      "▁poll": 6536,
      "▁Cleveland": 6537,
      "▁strict": 6538,
      "▁brick": 6539,
      "▁Afghanistan": 6540,
      "▁routes": 6541,
      "▁Equipment": 6542,
      "▁stake": 6543,
      "▁dispute": 6544,
      "sized": 6545,
      "▁vitamin": 6546,
      "▁Interior": 6547,
      "▁identical": 6548,
      "▁profiles": 6549,
      "▁Until": 6550,
      "▁varied": 6551,
      "▁jury": 6552,
      "sen": 6553,
      "▁th": 6554,
      "▁acknowledge": 6555,
      "ten": 6556,
      "▁Stadium": 6557,
      "▁Walker": 6558,
      "▁IBM": 6559,
      "lo": 6560,
      "▁agreements": 6561,
      "our": 6562,
      "▁yeah": 6563,
      "▁Maria": 6564,
      "▁annually": 6565,
      "▁rack": 6566,
      "▁Josh": 6567,
      "▁boundaries": 6568,
      "▁Chi": 6569,
      "ina": 6570,
      "▁counsel": 6571,
      "▁significance": 6572,
      "▁Peace": 6573,
      "▁Boy": 6574,
      "▁lips": 6575,
      "▁drew": 6576,
      "▁lightweight": 6577,
      "TV": 6578,
      "▁sons": 6579,
      "▁laundry": 6580,
      "▁patent": 6581,
      "▁consultant": 6582,
      "▁Source": 6583,
      "▁claiming": 6584,
      "▁hunt": 6585,
      "va": 6586,
      "▁overwhelming": 6587,
      "▁tennis": 6588,
      "▁Rep": 6589,
      "▁spell": 6590,
      "▁Bruce": 6591,
      "▁threatened": 6592,
      "▁Temple": 6593,
      "op": 6594,
      "pa": 6595,
      "▁wage": 6596,
      "▁abandoned": 6597,
      "▁impacts": 6598,
      "▁Alliance": 6599,
      "о": 6600,
      "▁Alan": 6601,
      "▁ruled": 6602,
      "▁supplement": 6603,
      "▁habit": 6604,
      "▁simultaneously": 6605,
      "▁rings": 6606,
      "▁login": 6607,
      "wa": 6608,
      "url": 6609,
      "▁allegedly": 6610,
      "▁URL": 6611,
      "▁closest": 6612,
      "▁tremendous": 6613,
      "are": 6614,
      "▁Electric": 6615,
      "▁cabinets": 6616,
      "ise": 6617,
      "▁mask": 6618,
      "even": 6619,
      "▁reflects": 6620,
      "▁Update": 6621,
      "▁implementing": 6622,
      "▁Practice": 6623,
      "▁protocol": 6624,
      "▁measurements": 6625,
      "▁motivated": 6626,
      "▁Labor": 6627,
      "▁mechanisms": 6628,
      "▁Companies": 6629,
      "▁wherein": 6630,
      "▁crack": 6631,
      "▁Islam": 6632,
      "▁installing": 6633,
      "▁implications": 6634,
      "▁Soviet": 6635,
      "▁celebrating": 6636,
      "▁Previous": 6637,
      "▁Francis": 6638,
      "▁publications": 6639,
      "▁influenced": 6640,
      "▁invested": 6641,
      "state": 6642,
      "▁Charlie": 6643,
      "▁Dead": 6644,
      "▁inflation": 6645,
      "▁Images": 6646,
      "▁analyze": 6647,
      "▁crop": 6648,
      "▁viewers": 6649,
      "▁suits": 6650,
      "▁Pan": 6651,
      "▁gambling": 6652,
      "▁hybrid": 6653,
      "▁Rick": 6654,
      "▁bay": 6655,
      "▁Ice": 6656,
      "▁survived": 6657,
      "▁disk": 6658,
      "▁detect": 6659,
      "▁notion": 6660,
      "2019": 6661,
      "▁tourists": 6662,
      "▁grocery": 6663,
      "▁tags": 6664,
      "▁PhD": 6665,
      "▁spa": 6666,
      "▁calories": 6667,
      "▁bin": 6668,
      "▁bits": 6669,
      "▁stroke": 6670,
      "▁lemon": 6671,
      "▁wore": 6672,
      "▁gradually": 6673,
      "▁attacked": 6674,
      "▁tablets": 6675,
      "▁grants": 6676,
      "▁Jonathan": 6677,
      "ja": 6678,
      "▁Springs": 6679,
      "▁lawn": 6680,
      "▁radiation": 6681,
      "▁fed": 6682,
      "▁Highway": 6683,
      "▁Between": 6684,
      "▁magnetic": 6685,
      "▁qualities": 6686,
      "▁harmful": 6687,
      "▁THIS": 6688,
      "▁contacts": 6689,
      "▁zip": 6690,
      "▁Had": 6691,
      "▁olive": 6692,
      "▁lamp": 6693,
      "specific": 6694,
      "▁observe": 6695,
      "▁reserves": 6696,
      "▁belong": 6697,
      "▁makers": 6698,
      "▁seal": 6699,
      "▁fleet": 6700,
      "▁Bring": 6701,
      "▁contacted": 6702,
      "▁Speaking": 6703,
      "▁actress": 6704,
      "▁shame": 6705,
      "▁bearing": 6706,
      "▁podcast": 6707,
      "▁Core": 6708,
      "▁buried": 6709,
      "▁incorporated": 6710,
      "▁ski": 6711,
      "▁leaf": 6712,
      "▁disc": 6713,
      "▁welfare": 6714,
      "▁boring": 6715,
      "▁auction": 6716,
      "▁replacing": 6717,
      "▁proteins": 6718,
      "▁proposals": 6719,
      "▁perception": 6720,
      "▁Hamilton": 6721,
      "▁glory": 6722,
      "▁liberal": 6723,
      "ised": 6724,
      "▁oils": 6725,
      "▁diamond": 6726,
      "▁confirmation": 6727,
      "▁Rev": 6728,
      "▁nail": 6729,
      "▁classical": 6730,
      "▁demo": 6731,
      "▁Wedding": 6732,
      "▁suspended": 6733,
      "▁peer": 6734,
      "▁attendance": 6735,
      "▁coconut": 6736,
      "▁dough": 6737,
      "▁Challenge": 6738,
      "▁excessive": 6739,
      "▁mature": 6740,
      "▁consecutive": 6741,
      "▁cookie": 6742,
      "▁Sport": 6743,
      "▁twist": 6744,
      "▁DO": 6745,
      "▁Additional": 6746,
      "▁holder": 6747,
      "▁disposal": 6748,
      "▁console": 6749,
      "▁Girls": 6750,
      "▁delighted": 6751,
      "ga": 6752,
      "▁Actually": 6753,
      "▁Meeting": 6754,
      "▁outlet": 6755,
      "▁suggesting": 6756,
      "▁sponsored": 6757,
      "ji": 6758,
      "▁blogging": 6759,
      "▁Phoenix": 6760,
      "▁IL": 6761,
      "▁YOUR": 6762,
      "▁technological": 6763,
      "▁intensity": 6764,
      "▁opponent": 6765,
      "▁junk": 6766,
      "▁nuts": 6767,
      "▁labels": 6768,
      "58": 6769,
      "▁thereby": 6770,
      "▁crossed": 6771,
      "▁excellence": 6772,
      "▁obligation": 6773,
      "▁Cash": 6774,
      "▁Metal": 6775,
      "▁apartments": 6776,
      "▁enabling": 6777,
      "▁vinyl": 6778,
      "▁spacious": 6779,
      "▁Style": 6780,
      "▁replied": 6781,
      "▁scratch": 6782,
      "▁ABC": 6783,
      "▁Khan": 6784,
      "▁legitimate": 6785,
      "▁worthy": 6786,
      "▁Jo": 6787,
      "▁cancel": 6788,
      "▁trails": 6789,
      "▁restricted": 6790,
      "▁Greece": 6791,
      "▁tutorial": 6792,
      "▁judges": 6793,
      "▁bet": 6794,
      "▁friendship": 6795,
      "▁Investment": 6796,
      "▁computing": 6797,
      "▁sake": 6798,
      "▁colorful": 6799,
      "▁negotiations": 6800,
      "▁Lisa": 6801,
      "▁jazz": 6802,
      "▁confusion": 6803,
      "era": 6804,
      "▁Trail": 6805,
      "▁voltage": 6806,
      "▁guided": 6807,
      "▁variables": 6808,
      "▁workforce": 6809,
      "▁swim": 6810,
      "▁attorneys": 6811,
      "▁strain": 6812,
      "▁tender": 6813,
      "▁sisters": 6814,
      "▁dealer": 6815,
      "▁trim": 6816,
      "▁reflection": 6817,
      "▁Java": 6818,
      "▁gross": 6819,
      "▁versatile": 6820,
      "▁elite": 6821,
      "▁cannabis": 6822,
      "▁Single": 6823,
      "▁defeated": 6824,
      "▁funeral": 6825,
      "▁alternatives": 6826,
      "▁jumped": 6827,
      "▁visa": 6828,
      "▁reduces": 6829,
      "▁Thailand": 6830,
      "▁boats": 6831,
      "▁desert": 6832,
      "page": 6833,
      "▁fails": 6834,
      "▁browse": 6835,
      "▁Ha": 6836,
      "▁colored": 6837,
      "▁citizen": 6838,
      "▁Dance": 6839,
      "▁climbing": 6840,
      "▁hub": 6841,
      "▁labour": 6842,
      "▁tear": 6843,
      "▁Repair": 6844,
      "▁Malaysia": 6845,
      "▁revolution": 6846,
      "▁departure": 6847,
      "ki": 6848,
      "▁loading": 6849,
      "▁essence": 6850,
      "▁Cut": 6851,
      "▁devoted": 6852,
      "▁anticipated": 6853,
      "▁utilizing": 6854,
      "▁approached": 6855,
      "▁isolated": 6856,
      "▁jaw": 6857,
      "▁reporters": 6858,
      "▁scared": 6859,
      "▁Con": 6860,
      "▁Enterprise": 6861,
      "▁optional": 6862,
      "▁Often": 6863,
      "▁audiences": 6864,
      "▁Fun": 6865,
      "▁highway": 6866,
      "▁Round": 6867,
      "▁shoulders": 6868,
      "▁offerings": 6869,
      "▁complexity": 6870,
      "▁Quick": 6871,
      "▁mutual": 6872,
      "▁suited": 6873,
      "▁deemed": 6874,
      "▁Sri": 6875,
      "▁promising": 6876,
      "good": 6877,
      "▁scholarship": 6878,
      "▁specifications": 6879,
      "▁countless": 6880,
      "▁adjusted": 6881,
      "▁trans": 6882,
      "▁twelve": 6883,
      "▁thorough": 6884,
      "▁Inside": 6885,
      "▁Door": 6886,
      "▁satisfy": 6887,
      "▁66": 6888,
      "▁Okay": 6889,
      "▁consciousness": 6890,
      "▁elderly": 6891,
      "▁Date": 6892,
      "▁wiring": 6893,
      "▁Thanksgiving": 6894,
      "▁Staff": 6895,
      "▁Moscow": 6896,
      "▁Event": 6897,
      "▁submission": 6898,
      "▁cabin": 6899,
      "▁dressing": 6900,
      "▁agriculture": 6901,
      "▁downloaded": 6902,
      "▁Sweden": 6903,
      "▁differ": 6904,
      "▁earning": 6905,
      "▁Cool": 6906,
      "▁shadow": 6907,
      "▁appreciation": 6908,
      "▁Tri": 6909,
      "▁addressing": 6910,
      "▁captain": 6911,
      "2014": 6912,
      "week": 6913,
      "▁Amy": 6914,
      "▁traditions": 6915,
      "▁intake": 6916,
      "▁rally": 6917,
      "▁ranking": 6918,
      "light": 6919,
      "▁verify": 6920,
      "▁Player": 6921,
      "▁reliability": 6922,
      "▁refuse": 6923,
      "▁containers": 6924,
      "▁basket": 6925,
      "▁Netflix": 6926,
      "▁populations": 6927,
      "▁closet": 6928,
      "▁affiliate": 6929,
      "▁Turn": 6930,
      "▁Language": 6931,
      "▁adopt": 6932,
      "▁beating": 6933,
      "▁aging": 6934,
      "▁ignored": 6935,
      "▁Together": 6936,
      "▁bones": 6937,
      "▁Cost": 6938,
      "▁Works": 6939,
      "▁bonds": 6940,
      "▁mice": 6941,
      "▁Communications": 6942,
      "▁mad": 6943,
      "▁58": 6944,
      "▁uniform": 6945,
      "▁Organization": 6946,
      "▁Current": 6947,
      "▁prospects": 6948,
      "▁Islands": 6949,
      "▁Battle": 6950,
      "▁CT": 6951,
      "▁drain": 6952,
      "▁immigrants": 6953,
      "▁fears": 6954,
      "▁Brexit": 6955,
      "▁Years": 6956,
      "▁Da": 6957,
      "▁rounds": 6958,
      "~": 6959,
      "▁grip": 6960,
      "▁transparent": 6961,
      "▁Tower": 6962,
      "▁Susan": 6963,
      "▁Metro": 6964,
      "▁warming": 6965,
      "▁reminder": 6966,
      "▁entities": 6967,
      "▁organize": 6968,
      "ex": 6969,
      "▁Course": 6970,
      "▁ranks": 6971,
      "▁cited": 6972,
      "▁hike": 6973,
      "sh": 6974,
      "▁joke": 6975,
      "▁receives": 6976,
      "air": 6977,
      "▁mixing": 6978,
      "▁beta": 6979,
      "▁creatures": 6980,
      "▁romance": 6981,
      "▁quest": 6982,
      "▁Jose": 6983,
      "care": 6984,
      "▁controversial": 6985,
      "▁Coffee": 6986,
      "▁360": 6987,
      "▁Russell": 6988,
      "▁Entertainment": 6989,
      "▁Del": 6990,
      "▁presentations": 6991,
      "▁unlimited": 6992,
      "▁obligations": 6993,
      "▁Micro": 6994,
      "▁assisted": 6995,
      "▁Tea": 6996,
      "▁measuring": 6997,
      "▁stakeholders": 6998,
      "▁Link": 6999,
      "▁winds": 7000,
      "▁cure": 7001,
      "▁showcase": 7002,
      "▁Greg": 7003,
      "Oh": 7004,
      "▁110": 7005,
      "▁corporation": 7006,
      "▁rewards": 7007,
      "▁lyrics": 7008,
      "▁Junior": 7009,
      "▁foster": 7010,
      "▁chamber": 7011,
      "▁besides": 7012,
      "▁renowned": 7013,
      "▁marketplace": 7014,
      "▁1988": 7015,
      "▁listings": 7016,
      "▁seeks": 7017,
      "▁Resort": 7018,
      "▁reactions": 7019,
      "▁headquarters": 7020,
      "▁receiver": 7021,
      "owned": 7022,
      "▁vacuum": 7023,
      "▁Brand": 7024,
      "▁candy": 7025,
      "▁Grace": 7026,
      "▁analytics": 7027,
      "2013": 7028,
      "▁Gulf": 7029,
      "On": 7030,
      "▁investor": 7031,
      "▁prospect": 7032,
      "▁variation": 7033,
      "▁reflected": 7034,
      "▁Map": 7035,
      "▁USD": 7036,
      "▁cloth": 7037,
      "▁resistant": 7038,
      "▁Clean": 7039,
      "▁57": 7040,
      "min": 7041,
      "▁00": 7042,
      "ted": 7043,
      "▁seating": 7044,
      "▁crushing": 7045,
      "▁Thompson": 7046,
      "▁Mid": 7047,
      "▁potatoes": 7048,
      "▁Mission": 7049,
      "▁Convention": 7050,
      "▁deciding": 7051,
      "▁adapt": 7052,
      "▁dropping": 7053,
      "▁conscious": 7054,
      "▁separation": 7055,
      "▁knowledgeable": 7056,
      "▁Recently": 7057,
      "▁prints": 7058,
      "der": 7059,
      "▁Netherlands": 7060,
      "▁pad": 7061,
      "ad": 7062,
      "▁invitation": 7063,
      "▁Antonio": 7064,
      "▁crossing": 7065,
      "▁touched": 7066,
      "▁Charlotte": 7067,
      "▁Taking": 7068,
      "▁stones": 7069,
      "▁Orleans": 7070,
      "Star": 7071,
      "▁Eve": 7072,
      "gen": 7073,
      "▁traded": 7074,
      "▁attractions": 7075,
      "▁summit": 7076,
      "▁́": 7077,
      "▁Dream": 7078,
      "▁modify": 7079,
      "▁islands": 7080,
      "▁grinding": 7081,
      "▁Furniture": 7082,
      "▁betting": 7083,
      "▁uncomfortable": 7084,
      "▁pie": 7085,
      "▁nationwide": 7086,
      "ny": 7087,
      "▁meditation": 7088,
      "▁tongue": 7089,
      "▁lighter": 7090,
      "▁mold": 7091,
      "▁hungry": 7092,
      "▁backyard": 7093,
      "▁62": 7094,
      "▁advocate": 7095,
      "▁poster": 7096,
      "▁ordering": 7097,
      "▁Liverpool": 7098,
      "▁Cal": 7099,
      "▁suggestion": 7100,
      "▁Philippines": 7101,
      "▁Kennedy": 7102,
      "▁treats": 7103,
      "▁conditioning": 7104,
      "▁vessel": 7105,
      "▁IV": 7106,
      "▁Used": 7107,
      "▁Usually": 7108,
      "war": 7109,
      "speed": 7110,
      "▁Urban": 7111,
      "▁excuse": 7112,
      "▁separately": 7113,
      "▁fireplace": 7114,
      "▁compelling": 7115,
      "▁Ukraine": 7116,
      "▁determining": 7117,
      "▁accidents": 7118,
      "▁Heritage": 7119,
      "▁curve": 7120,
      "▁Legal": 7121,
      "▁Brooklyn": 7122,
      "▁welcomed": 7123,
      "▁Direct": 7124,
      "▁Roll": 7125,
      "▁paragraph": 7126,
      "▁teaches": 7127,
      "▁teen": 7128,
      "▁proceedings": 7129,
      "▁Hopefully": 7130,
      "rich": 7131,
      "▁fulfill": 7132,
      "▁entrepreneurs": 7133,
      "▁accepting": 7134,
      "▁sacrifice": 7135,
      "▁underground": 7136,
      "▁Muslims": 7137,
      "▁shades": 7138,
      "▁scary": 7139,
      "▁darkness": 7140,
      "▁Technical": 7141,
      "▁Hawaii": 7142,
      "▁shipped": 7143,
      "▁Flash": 7144,
      "▁airline": 7145,
      "▁gaining": 7146,
      "▁bi": 7147,
      "▁predict": 7148,
      "▁informative": 7149,
      "▁executed": 7150,
      "▁Phone": 7151,
      "▁radical": 7152,
      "▁HTML": 7153,
      "▁presenting": 7154,
      "▁humor": 7155,
      "▁exceed": 7156,
      "▁assists": 7157,
      "▁dried": 7158,
      "▁ME": 7159,
      "▁explaining": 7160,
      "▁intimate": 7161,
      "▁preferences": 7162,
      "▁regarded": 7163,
      "kin": 7164,
      "▁physics": 7165,
      "▁utilized": 7166,
      "▁Falls": 7167,
      "▁subsequently": 7168,
      "▁ha": 7169,
      "▁literary": 7170,
      "▁cognitive": 7171,
      "▁Graham": 7172,
      "▁hiking": 7173,
      "▁dive": 7174,
      "▁mere": 7175,
      "▁tropical": 7176,
      "▁decreased": 7177,
      "▁Century": 7178,
      "▁canvas": 7179,
      "▁Fresh": 7180,
      "▁Title": 7181,
      "▁mineral": 7182,
      "▁Jerusalem": 7183,
      "▁wondered": 7184,
      "nt": 7185,
      "▁Laura": 7186,
      "▁readily": 7187,
      "▁HERE": 7188,
      "▁supportive": 7189,
      "▁protective": 7190,
      "▁GPS": 7191,
      "▁preventing": 7192,
      "red": 7193,
      "▁detected": 7194,
      "▁Results": 7195,
      "▁veterans": 7196,
      "▁Lab": 7197,
      "▁combines": 7198,
      "▁reaches": 7199,
      "▁shine": 7200,
      "▁Indonesia": 7201,
      "▁texts": 7202,
      "▁consensus": 7203,
      "▁Duke": 7204,
      "▁highlighted": 7205,
      "▁broader": 7206,
      "▁opponents": 7207,
      "▁lands": 7208,
      "▁instructor": 7209,
      "▁praise": 7210,
      "water": 7211,
      "▁outdoors": 7212,
      "▁stays": 7213,
      "▁enjoys": 7214,
      "▁Culture": 7215,
      "▁widespread": 7216,
      "▁particles": 7217,
      "▁Technologies": 7218,
      "▁custody": 7219,
      "▁Coach": 7220,
      "▁charm": 7221,
      "▁Deep": 7222,
      "▁Got": 7223,
      "▁floating": 7224,
      "▁wines": 7225,
      "▁districts": 7226,
      "▁Fine": 7227,
      "▁journalist": 7228,
      "▁additionally": 7229,
      "▁homework": 7230,
      "▁Harvard": 7231,
      "▁LOVE": 7232,
      "▁spouse": 7233,
      "▁waited": 7234,
      "▁Alaska": 7235,
      "▁query": 7236,
      "▁camping": 7237,
      "▁Jennifer": 7238,
      "▁Throughout": 7239,
      "▁pointing": 7240,
      "▁Account": 7241,
      "▁charts": 7242,
      "▁forex": 7243,
      "▁epic": 7244,
      "▁partial": 7245,
      "▁arise": 7246,
      "▁Schools": 7247,
      "▁predicted": 7248,
      "▁Beijing": 7249,
      "▁Steven": 7250,
      "85": 7251,
      "▁Christopher": 7252,
      "▁courage": 7253,
      "▁Baltimore": 7254,
      "▁contributing": 7255,
      "▁Register": 7256,
      "▁cialis": 7257,
      "▁terrorist": 7258,
      "▁struggled": 7259,
      "bo": 7260,
      "▁landed": 7261,
      "▁Native": 7262,
      "▁blade": 7263,
      "▁affecting": 7264,
      "yard": 7265,
      "▁specialty": 7266,
      "▁screens": 7267,
      "▁Dubai": 7268,
      "▁Aaron": 7269,
      "▁forming": 7270,
      "▁Oak": 7271,
      "▁Maine": 7272,
      "▁solving": 7273,
      "▁establishing": 7274,
      "▁barrier": 7275,
      "▁flavors": 7276,
      "▁Ok": 7277,
      "▁pit": 7278,
      "▁Remove": 7279,
      "▁GM": 7280,
      "▁bow": 7281,
      "▁Consider": 7282,
      "size": 7283,
      "▁resolved": 7284,
      "▁notification": 7285,
      "▁Gordon": 7286,
      "▁folk": 7287,
      "▁crown": 7288,
      "▁patience": 7289,
      "▁toxic": 7290,
      "▁unnecessary": 7291,
      "▁Prize": 7292,
      "▁examined": 7293,
      "▁Toyota": 7294,
      "▁peers": 7295,
      "▁libraries": 7296,
      "▁tends": 7297,
      "▁Ho": 7298,
      "▁flip": 7299,
      "▁variations": 7300,
      "▁adventures": 7301,
      "▁optical": 7302,
      "▁Euro": 7303,
      "berg": 7304,
      "▁Sean": 7305,
      "▁abstract": 7306,
      "▁debris": 7307,
      "▁plugin": 7308,
      "▁Heat": 7309,
      "▁investigating": 7310,
      "▁Holiday": 7311,
      "▁dated": 7312,
      "▁pockets": 7313,
      "▁continuously": 7314,
      "▁notable": 7315,
      "▁Tokyo": 7316,
      "▁straightforward": 7317,
      "▁filters": 7318,
      "▁minority": 7319,
      "▁03": 7320,
      "▁Others": 7321,
      "▁navigation": 7322,
      "▁courtesy": 7323,
      "▁facial": 7324,
      "▁targeting": 7325,
      "▁Nelson": 7326,
      "▁modules": 7327,
      "▁Swiss": 7328,
      "▁kingdom": 7329,
      "▁preference": 7330,
      "▁Sweet": 7331,
      "▁Palace": 7332,
      "▁precision": 7333,
      "▁girlfriend": 7334,
      "▁careers": 7335,
      "▁1986": 7336,
      "▁dimension": 7337,
      "▁Turkish": 7338,
      "▁thankful": 7339,
      "▁boyfriend": 7340,
      "▁ISO": 7341,
      "▁stack": 7342,
      "▁analyst": 7343,
      "▁booked": 7344,
      "▁Carter": 7345,
      "▁Storage": 7346,
      "▁broker": 7347,
      "▁SC": 7348,
      "▁§": 7349,
      "▁adjacent": 7350,
      "▁350": 7351,
      "▁cleaner": 7352,
      "▁Certified": 7353,
      "▁Craig": 7354,
      "▁compound": 7355,
      "▁Fish": 7356,
      "▁innocent": 7357,
      "69": 7358,
      "looking": 7359,
      "▁appealing": 7360,
      "▁favorites": 7361,
      "▁Index": 7362,
      "▁sooner": 7363,
      "▁royal": 7364,
      "▁momentum": 7365,
      "gov": 7366,
      "▁Blood": 7367,
      "▁blank": 7368,
      "▁101": 7369,
      "depth": 7370,
      "▁logical": 7371,
      "700": 7372,
      "▁Motor": 7373,
      "▁google": 7374,
      "les": 7375,
      "▁wound": 7376,
      "▁symbols": 7377,
      "▁perceived": 7378,
      "▁sensors": 7379,
      "▁Switzerland": 7380,
      "▁holy": 7381,
      "▁easiest": 7382,
      "▁seasonal": 7383,
      "▁discrimination": 7384,
      "▁valve": 7385,
      "▁internationally": 7386,
      "▁electronics": 7387,
      "▁embodiment": 7388,
      "▁inclusion": 7389,
      "▁Song": 7390,
      "▁voter": 7391,
      "▁functioning": 7392,
      "▁dig": 7393,
      "▁killer": 7394,
      "ol": 7395,
      "▁queen": 7396,
      "▁legally": 7397,
      "▁Parker": 7398,
      "▁colleges": 7399,
      "▁AS": 7400,
      "▁grows": 7401,
      "▁migration": 7402,
      "mer": 7403,
      "▁ink": 7404,
      "▁1987": 7405,
      "▁reasonably": 7406,
      "▁consult": 7407,
      "service": 7408,
      "▁thermal": 7409,
      "▁trauma": 7410,
      "▁journalists": 7411,
      "2012": 7412,
      "▁Cooper": 7413,
      "▁heated": 7414,
      "▁sustainability": 7415,
      "▁algorithm": 7416,
      "▁horrible": 7417,
      "▁fridge": 7418,
      "▁classified": 7419,
      "▁generating": 7420,
      "▁Mix": 7421,
      "▁None": 7422,
      "▁formats": 7423,
      "▁integrate": 7424,
      "▁surgical": 7425,
      "▁costly": 7426,
      "▁attracted": 7427,
      "▁Earlier": 7428,
      "room": 7429,
      "▁employ": 7430,
      "▁ethical": 7431,
      "▁forgot": 7432,
      "▁cleaned": 7433,
      "▁daughters": 7434,
      "▁Dragon": 7435,
      "▁donated": 7436,
      "▁accessed": 7437,
      "▁beside": 7438,
      "▁Associated": 7439,
      "▁imaging": 7440,
      "▁individually": 7441,
      "▁grades": 7442,
      "▁cord": 7443,
      "▁Du": 7444,
      "▁pipeline": 7445,
      "▁Pa": 7446,
      "▁conducting": 7447,
      "▁Nevertheless": 7448,
      "▁Hair": 7449,
      "▁Intel": 7450,
      "▁tiles": 7451,
      "ous": 7452,
      "▁transit": 7453,
      "▁sex": 7454,
      "▁Senator": 7455,
      "▁resist": 7456,
      "now": 7457,
      "▁recycling": 7458,
      "▁portal": 7459,
      "▁Na": 7460,
      "▁Medicare": 7461,
      "▁lovers": 7462,
      "▁speeds": 7463,
      "▁linear": 7464,
      "▁challenged": 7465,
      "▁soap": 7466,
      "ney": 7467,
      "▁poem": 7468,
      "▁59": 7469,
      "▁Ad": 7470,
      "▁wallpaper": 7471,
      "▁teens": 7472,
      "▁Bed": 7473,
      "▁Walk": 7474,
      "▁barrel": 7475,
      "▁trains": 7476,
      "▁Send": 7477,
      "▁ka": 7478,
      "▁coins": 7479,
      "▁accurately": 7480,
      "▁substitute": 7481,
      "▁Almost": 7482,
      "some": 7483,
      "▁supplements": 7484,
      "▁cleared": 7485,
      "▁pile": 7486,
      "▁critics": 7487,
      "▁ed": 7488,
      "▁Freedom": 7489,
      "▁Fashion": 7490,
      "Man": 7491,
      "▁paths": 7492,
      "▁breach": 7493,
      "▁ethnic": 7494,
      "▁bomb": 7495,
      "▁coin": 7496,
      "▁institutional": 7497,
      "▁Pop": 7498,
      "kg": 7499,
      "▁flows": 7500,
      "▁delicate": 7501,
      "▁Thai": 7502,
      "▁Independent": 7503,
      "▁mobility": 7504,
      "▁intend": 7505,
      "▁Caribbean": 7506,
      "▁distinctive": 7507,
      "▁phenomenon": 7508,
      "▁lounge": 7509,
      "▁clarity": 7510,
      "▁freely": 7511,
      "▁wings": 7512,
      "▁DIY": 7513,
      "▁recipient": 7514,
      "▁automotive": 7515,
      "▁syndrome": 7516,
      "▁prayers": 7517,
      "▁Beyond": 7518,
      "▁pose": 7519,
      "▁partially": 7520,
      "▁stairs": 7521,
      "▁audit": 7522,
      "▁priorities": 7523,
      "▁Base": 7524,
      "▁tub": 7525,
      "▁vocal": 7526,
      "▁picks": 7527,
      "▁Excellent": 7528,
      "▁vessels": 7529,
      "▁automation": 7530,
      "▁executives": 7531,
      "▁flesh": 7532,
      "▁heal": 7533,
      "▁eager": 7534,
      "▁vendor": 7535,
      "▁Syrian": 7536,
      "▁abortion": 7537,
      "▁observation": 7538,
      "▁subscribe": 7539,
      "▁luxurious": 7540,
      "▁Wayne": 7541,
      "▁valley": 7542,
      "▁shake": 7543,
      "▁infections": 7544,
      "▁chemistry": 7545,
      "▁embedded": 7546,
      "▁tailored": 7547,
      "▁suspected": 7548,
      "▁alter": 7549,
      "▁premier": 7550,
      "white": 7551,
      "▁Singh": 7552,
      "▁dealt": 7553,
      "▁dresses": 7554,
      "▁Spa": 7555,
      "▁specially": 7556,
      "▁occasional": 7557,
      "▁Med": 7558,
      "▁promoted": 7559,
      "▁98": 7560,
      "▁Palm": 7561,
      "wing": 7562,
      "▁continually": 7563,
      "▁Gray": 7564,
      "ns": 7565,
      "▁revenues": 7566,
      "▁dedication": 7567,
      "▁serial": 7568,
      "▁Days": 7569,
      "get": 7570,
      "▁testimony": 7571,
      "▁Barbara": 7572,
      "▁transformed": 7573,
      "▁afterwards": 7574,
      "▁catalog": 7575,
      "▁hesitate": 7576,
      "▁Pet": 7577,
      "▁nerve": 7578,
      "▁occupied": 7579,
      "▁lined": 7580,
      "▁Question": 7581,
      "▁controlling": 7582,
      "▁Mars": 7583,
      "▁barriers": 7584,
      "▁Pi": 7585,
      "▁silly": 7586,
      "▁longest": 7587,
      "▁recruitment": 7588,
      "ins": 7589,
      "▁sustained": 7590,
      "▁legendary": 7591,
      "▁63": 7592,
      "▁Imagine": 7593,
      "▁Animal": 7594,
      "▁secrets": 7595,
      "▁Letter": 7596,
      "▁backing": 7597,
      "▁venues": 7598,
      "▁convince": 7599,
      "▁manufacture": 7600,
      "▁pharmacy": 7601,
      "▁Especially": 7602,
      "▁dramatically": 7603,
      "▁tricks": 7604,
      "▁coupled": 7605,
      "▁Intelligence": 7606,
      "▁dynamics": 7607,
      "▁Funeral": 7608,
      "▁pickup": 7609,
      "▁receipt": 7610,
      "▁surveillance": 7611,
      "▁attributes": 7612,
      "step": 7613,
      "▁68": 7614,
      "▁Arabia": 7615,
      "▁Obviously": 7616,
      "▁restored": 7617,
      "▁Poland": 7618,
      "▁Premium": 7619,
      "▁Baker": 7620,
      "▁stir": 7621,
      "▁Warren": 7622,
      "▁dominant": 7623,
      "▁Mail": 7624,
      "▁Hillary": 7625,
      "▁magnificent": 7626,
      "▁briefly": 7627,
      "▁Speed": 7628,
      "▁underneath": 7629,
      "▁awful": 7630,
      "▁Jacob": 7631,
      "chi": 7632,
      "▁gang": 7633,
      "▁cups": 7634,
      "▁coastal": 7635,
      "▁prospective": 7636,
      "▁skip": 7637,
      "there": 7638,
      "▁tent": 7639,
      "▁pics": 7640,
      "▁collaborative": 7641,
      "▁AR": 7642,
      "ities": 7643,
      "86": 7644,
      "▁publisher": 7645,
      "▁disclosure": 7646,
      "▁startup": 7647,
      "▁banned": 7648,
      "▁shelves": 7649,
      "▁1984": 7650,
      "▁harsh": 7651,
      "▁charming": 7652,
      "▁chef": 7653,
      "ak": 7654,
      "▁Text": 7655,
      "▁varieties": 7656,
      "▁surprisingly": 7657,
      "▁NASA": 7658,
      "▁governance": 7659,
      "▁Feel": 7660,
      "▁uncertainty": 7661,
      "▁Federation": 7662,
      "▁Salt": 7663,
      "▁robot": 7664,
      "ini": 7665,
      "▁gel": 7666,
      "▁programmes": 7667,
      "▁privilege": 7668,
      "▁permits": 7669,
      "▁1985": 7670,
      "▁Picture": 7671,
      "▁strikes": 7672,
      "▁paste": 7673,
      "▁Arthur": 7674,
      "▁wellness": 7675,
      "▁applicants": 7676,
      "▁Gift": 7677,
      "▁clever": 7678,
      "▁recovered": 7679,
      "▁nowhere": 7680,
      "▁corners": 7681,
      "▁promotional": 7682,
      "▁Chelsea": 7683,
      "▁blast": 7684,
      "▁Adams": 7685,
      "▁lap": 7686,
      "▁Bear": 7687,
      "▁Hence": 7688,
      "▁CNN": 7689,
      "▁lip": 7690,
      "▁fate": 7691,
      "▁Region": 7692,
      "▁Guys": 7693,
      "ard": 7694,
      "mar": 7695,
      "▁Cold": 7696,
      "Â": 7697,
      "▁Rich": 7698,
      "▁Author": 7699,
      "▁albums": 7700,
      "▁Details": 7701,
      "▁animation": 7702,
      "▁Hunter": 7703,
      "▁comparable": 7704,
      "▁struggles": 7705,
      "▁61": 7706,
      "▁mothers": 7707,
      "▁educated": 7708,
      "▁respected": 7709,
      "▁Rachel": 7710,
      "si": 7711,
      "▁Diamond": 7712,
      "▁incidents": 7713,
      "▁Roger": 7714,
      "▁theories": 7715,
      "▁Wine": 7716,
      "▁outlets": 7717,
      "▁hockey": 7718,
      "▁indicator": 7719,
      "▁obtaining": 7720,
      "▁Kings": 7721,
      "▁Discover": 7722,
      "▁pressing": 7723,
      "▁deny": 7724,
      "▁partly": 7725,
      "▁tire": 7726,
      "▁destinations": 7727,
      "▁companion": 7728,
      "▁Grey": 7729,
      "▁Movie": 7730,
      "non": 7731,
      "▁02": 7732,
      "▁thrilled": 7733,
      "▁adorable": 7734,
      "▁renewable": 7735,
      "▁magazines": 7736,
      "▁Crown": 7737,
      "▁THAT": 7738,
      "▁Say": 7739,
      "▁refugees": 7740,
      "▁tasty": 7741,
      "▁disabilities": 7742,
      "▁welcoming": 7743,
      "▁Nevada": 7744,
      "▁Wright": 7745,
      "▁neighbor": 7746,
      "▁batch": 7747,
      "▁Grade": 7748,
      "▁Shipping": 7749,
      "▁NJ": 7750,
      "▁Ex": 7751,
      "▁NYC": 7752,
      "▁evolved": 7753,
      "▁semester": 7754,
      "▁Rd": 7755,
      "▁volumes": 7756,
      "▁quoted": 7757,
      "▁decorating": 7758,
      "▁Mississippi": 7759,
      "▁Editor": 7760,
      "about": 7761,
      "▁Angel": 7762,
      "▁Commerce": 7763,
      "low": 7764,
      "▁WE": 7765,
      "▁contrary": 7766,
      "▁delight": 7767,
      "▁borders": 7768,
      "▁comprises": 7769,
      "▁emotion": 7770,
      "▁Tickets": 7771,
      "▁consume": 7772,
      "▁Speaker": 7773,
      "▁tires": 7774,
      "▁ANY": 7775,
      "▁Cell": 7776,
      "▁hung": 7777,
      "▁spotted": 7778,
      "▁seventh": 7779,
      "▁Either": 7780,
      "▁reporter": 7781,
      "▁Depending": 7782,
      "▁nearest": 7783,
      "▁jeans": 7784,
      "▁08": 7785,
      "▁alumni": 7786,
      "▁compromise": 7787,
      "▁healthier": 7788,
      "▁reminds": 7789,
      "▁evident": 7790,
      "▁Print": 7791,
      "▁Location": 7792,
      "▁nonprofit": 7793,
      "▁Pittsburgh": 7794,
      "▁Pinterest": 7795,
      "▁stressed": 7796,
      "▁WITH": 7797,
      "▁relatives": 7798,
      "▁Original": 7799,
      "▁infected": 7800,
      "▁Eye": 7801,
      "▁700": 7802,
      "▁pairs": 7803,
      "▁Pages": 7804,
      "▁packing": 7805,
      "▁Revolution": 7806,
      "▁collapse": 7807,
      "▁Write": 7808,
      "▁appearing": 7809,
      "▁Jimmy": 7810,
      "▁Ko": 7811,
      "▁Yoga": 7812,
      "▁convention": 7813,
      "▁mandatory": 7814,
      "▁coupons": 7815,
      "▁leverage": 7816,
      "▁monster": 7817,
      "ster": 7818,
      "▁lean": 7819,
      "▁Audio": 7820,
      "ek": 7821,
      "▁Drug": 7822,
      "▁Ian": 7823,
      "▁psychology": 7824,
      "▁premises": 7825,
      "▁Mind": 7826,
      "▁needing": 7827,
      "▁encountered": 7828,
      "play": 7829,
      "▁180": 7830,
      "▁ports": 7831,
      "▁76": 7832,
      "▁Universal": 7833,
      "▁bare": 7834,
      "▁honored": 7835,
      "▁Louisiana": 7836,
      "ship": 7837,
      "▁manually": 7838,
      "▁inquiry": 7839,
      "▁mi": 7840,
      "▁tactics": 7841,
      "▁lane": 7842,
      "▁forums": 7843,
      "▁07": 7844,
      "▁launching": 7845,
      "▁describing": 7846,
      "Well": 7847,
      "▁Lawrence": 7848,
      "▁nutrients": 7849,
      "▁optimization": 7850,
      "▁handles": 7851,
      "▁conjunction": 7852,
      "▁adjustable": 7853,
      "▁hills": 7854,
      "▁bother": 7855,
      "▁queries": 7856,
      "▁deserves": 7857,
      "▁traveled": 7858,
      "▁tomatoes": 7859,
      "▁sanctions": 7860,
      "▁Commissioner": 7861,
      "▁Nation": 7862,
      "▁closure": 7863,
      "▁hiding": 7864,
      "▁prompt": 7865,
      "▁architectural": 7866,
      "▁grabbed": 7867,
      "▁racial": 7868,
      "▁consistency": 7869,
      "▁Mc": 7870,
      "key": 7871,
      "▁novels": 7872,
      "▁burned": 7873,
      "▁Guard": 7874,
      "▁wages": 7875,
      "▁activists": 7876,
      "2010": 7877,
      "▁pays": 7878,
      "▁Resume": 7879,
      "▁segments": 7880,
      "▁terror": 7881,
      "▁mysterious": 7882,
      "▁rival": 7883,
      "▁bikes": 7884,
      "▁petition": 7885,
      "▁retreat": 7886,
      "▁preview": 7887,
      "▁Someone": 7888,
      "▁jet": 7889,
      "▁unto": 7890,
      "▁ca": 7891,
      "▁Fortunately": 7892,
      "▁practicing": 7893,
      "▁draws": 7894,
      "▁delayed": 7895,
      "▁Going": 7896,
      "▁67": 7897,
      "▁Born": 7898,
      "▁scholars": 7899,
      "▁execute": 7900,
      "▁eco": 7901,
      "▁damn": 7902,
      "▁loyalty": 7903,
      "▁lifted": 7904,
      "▁Cleaning": 7905,
      "▁Douglas": 7906,
      "▁Murray": 7907,
      "▁FDA": 7908,
      "▁Deputy": 7909,
      "▁Ram": 7910,
      "PM": 7911,
      "▁villages": 7912,
      "▁sunny": 7913,
      "▁independently": 7914,
      "▁Franklin": 7915,
      "▁divine": 7916,
      "▁Summit": 7917,
      "▁kits": 7918,
      "▁Inn": 7919,
      "▁organised": 7920,
      "▁crying": 7921,
      "▁VPN": 7922,
      "▁cyber": 7923,
      "▁Unless": 7924,
      "▁steal": 7925,
      "▁machinery": 7926,
      "▁Connecticut": 7927,
      "▁vegetable": 7928,
      "▁von": 7929,
      "▁desires": 7930,
      "▁Corporate": 7931,
      "▁Engine": 7932,
      "isation": 7933,
      "▁Barcelona": 7934,
      "▁homeowners": 7935,
      "▁Race": 7936,
      "▁homeless": 7937,
      "▁Mining": 7938,
      "▁shocked": 7939,
      "▁observations": 7940,
      "▁minimize": 7941,
      "▁aesthetic": 7942,
      "▁graduation": 7943,
      "▁safer": 7944,
      "▁costume": 7945,
      "▁profitable": 7946,
      "▁acute": 7947,
      "stone": 7948,
      "▁sensitivity": 7949,
      "▁existed": 7950,
      "▁warrant": 7951,
      "▁approaching": 7952,
      "▁dairy": 7953,
      "LY": 7954,
      "▁responsive": 7955,
      "▁Solar": 7956,
      "ola": 7957,
      "▁bias": 7958,
      "▁indication": 7959,
      "school": 7960,
      "▁listened": 7961,
      "▁000": 7962,
      "▁chapters": 7963,
      "▁crafted": 7964,
      "▁ate": 7965,
      "▁Seven": 7966,
      "▁bugs": 7967,
      "▁singles": 7968,
      "▁span": 7969,
      "▁construct": 7970,
      "▁Honda": 7971,
      "▁Palestinian": 7972,
      "▁median": 7973,
      "▁triple": 7974,
      "▁donate": 7975,
      "▁introducing": 7976,
      "▁farming": 7977,
      "▁Stewart": 7978,
      "▁fold": 7979,
      "▁asleep": 7980,
      "▁acknowledged": 7981,
      "driven": 7982,
      "▁circles": 7983,
      "▁proportion": 7984,
      "▁integral": 7985,
      "▁Starting": 7986,
      "▁pension": 7987,
      "▁stamp": 7988,
      "▁desperate": 7989,
      "▁snap": 7990,
      "▁max": 7991,
      "▁statistical": 7992,
      "▁09": 7993,
      "▁lit": 7994,
      "▁Awesome": 7995,
      "▁legislative": 7996,
      "▁lenses": 7997,
      "ring": 7998,
      "▁Larry": 7999,
      "Why": 8000,
      "▁palm": 8001,
      "▁jumping": 8002,
      "▁Mi": 8003,
      "▁appearances": 8004,
      "▁traders": 8005,
      "▁bat": 8006,
      "vi": 8007,
      "▁households": 8008,
      "▁theft": 8009,
      "▁oak": 8010,
      "2011": 8011,
      "▁kicked": 8012,
      "▁Marie": 8013,
      "67": 8014,
      "▁Leave": 8015,
      "▁globally": 8016,
      "▁jurisdiction": 8017,
      "▁panic": 8018,
      "▁Pack": 8019,
      "▁adjustment": 8020,
      "▁talents": 8021,
      "▁liable": 8022,
      "▁consisting": 8023,
      "▁GOP": 8024,
      "▁93": 8025,
      "▁insert": 8026,
      "▁translated": 8027,
      "▁owns": 8028,
      "▁Pink": 8029,
      "view": 8030,
      "ance": 8031,
      "▁niche": 8032,
      "▁adapted": 8033,
      "、": 8034,
      "▁Campbell": 8035,
      "▁reads": 8036,
      "▁Dublin": 8037,
      "▁Left": 8038,
      "▁investigations": 8039,
      "▁throat": 8040,
      "▁den": 8041,
      "▁Beauty": 8042,
      "▁taxi": 8043,
      "ger": 8044,
      "▁transparency": 8045,
      "▁rolls": 8046,
      "▁arriving": 8047,
      "▁prescribed": 8048,
      "▁molecular": 8049,
      "▁ore": 8050,
      "▁visibility": 8051,
      "▁Ridge": 8052,
      "▁Fed": 8053,
      "▁Former": 8054,
      "▁newer": 8055,
      "▁protests": 8056,
      "▁indicating": 8057,
      "▁SA": 8058,
      "▁monetary": 8059,
      "▁Costa": 8060,
      "▁FC": 8061,
      "▁Ultra": 8062,
      "▁Kindle": 8063,
      "▁snack": 8064,
      "win": 8065,
      "▁Chamber": 8066,
      "▁pound": 8067,
      "▁therapeutic": 8068,
      "▁Emily": 8069,
      "▁mayor": 8070,
      "▁Karen": 8071,
      "▁Restaurant": 8072,
      "▁Leader": 8073,
      "▁Bi": 8074,
      "▁pork": 8075,
      "▁clay": 8076,
      "▁Trans": 8077,
      "▁react": 8078,
      "▁woods": 8079,
      "hi": 8080,
      "▁ya": 8081,
      "▁Lots": 8082,
      "▁affair": 8083,
      "▁educate": 8084,
      "▁Alice": 8085,
      "▁Fan": 8086,
      "ball": 8087,
      "▁convicted": 8088,
      "▁sponsor": 8089,
      "▁Roy": 8090,
      "▁discretion": 8091,
      "▁Madison": 8092,
      "▁varying": 8093,
      "▁ridiculous": 8094,
      "▁quarterback": 8095,
      "▁outline": 8096,
      "▁Manhattan": 8097,
      "▁allies": 8098,
      "▁wheat": 8099,
      "▁orientation": 8100,
      "▁Crystal": 8101,
      "ang": 8102,
      "▁attraction": 8103,
      "▁prestigious": 8104,
      "▁conferences": 8105,
      "▁annoying": 8106,
      "▁concentrate": 8107,
      "2000": 8108,
      "▁comparing": 8109,
      "▁fur": 8110,
      "▁synthetic": 8111,
      "▁deadly": 8112,
      "▁admin": 8113,
      "▁tribute": 8114,
      "▁neat": 8115,
      "▁CBS": 8116,
      "▁Jerry": 8117,
      "▁Robinson": 8118,
      "▁legend": 8119,
      "▁amid": 8120,
      "▁CBD": 8121,
      "▁Meet": 8122,
      "▁Trading": 8123,
      "▁Build": 8124,
      "▁Ka": 8125,
      "▁prizes": 8126,
      "▁96": 8127,
      "▁Michelle": 8128,
      "▁catching": 8129,
      "▁advances": 8130,
      "▁organizing": 8131,
      "▁Around": 8132,
      "▁unemployment": 8133,
      "▁Environment": 8134,
      "▁laughing": 8135,
      "▁litigation": 8136,
      "▁scenarios": 8137,
      "▁88": 8138,
      "▁Die": 8139,
      "▁Amazing": 8140,
      "▁decorative": 8141,
      "▁Valentine": 8142,
      "▁enthusiasm": 8143,
      "▁accordingly": 8144,
      "▁Bachelor": 8145,
      "▁maximize": 8146,
      "▁tastes": 8147,
      "person": 8148,
      "▁decorated": 8149,
      "ino": 8150,
      "▁builds": 8151,
      "▁04": 8152,
      "▁clouds": 8153,
      "shirt": 8154,
      "▁Yellow": 8155,
      "▁plumbing": 8156,
      "▁considerably": 8157,
      "▁AD": 8158,
      "▁Otherwise": 8159,
      "▁avoiding": 8160,
      "▁screw": 8161,
      "▁Soon": 8162,
      "lan": 8163,
      "▁promo": 8164,
      "▁rides": 8165,
      "▁Chrome": 8166,
      "▁Orlando": 8167,
      "▁matched": 8168,
      "▁investigated": 8169,
      "▁Princess": 8170,
      "▁Edge": 8171,
      "▁cycling": 8172,
      "▁shore": 8173,
      "▁Panel": 8174,
      "▁Robin": 8175,
      "▁goodness": 8176,
      "▁sa": 8177,
      "▁organ": 8178,
      "▁trainer": 8179,
      "▁Homes": 8180,
      "edu": 8181,
      "▁Leadership": 8182,
      "▁alternate": 8183,
      "cut": 8184,
      "▁basics": 8185,
      "▁regret": 8186,
      "▁nurses": 8187,
      "▁ARE": 8188,
      "▁bankruptcy": 8189,
      "▁specify": 8190,
      "▁lover": 8191,
      "▁77": 8192,
      "▁gut": 8193,
      "▁Partners": 8194,
      "▁deleted": 8195,
      "two": 8196,
      "▁tumor": 8197,
      "▁RAM": 8198,
      "▁counties": 8199,
      "▁consist": 8200,
      "▁Marvel": 8201,
      "▁Madrid": 8202,
      "▁tanks": 8203,
      "▁Must": 8204,
      "▁refreshing": 8205,
      "▁boasts": 8206,
      "▁cluster": 8207,
      "▁combining": 8208,
      "▁motorcycle": 8209,
      "▁riders": 8210,
      "▁Albert": 8211,
      "66": 8212,
      "▁substantially": 8213,
      "▁Half": 8214,
      "▁Clear": 8215,
      "▁terrorism": 8216,
      "▁static": 8217,
      "▁μ": 8218,
      "▁imposed": 8219,
      "▁steep": 8220,
      "▁democratic": 8221,
      "▁lineup": 8222,
      "▁metres": 8223,
      "▁technicians": 8224,
      "▁floral": 8225,
      "▁assessed": 8226,
      "ck": 8227,
      "▁strictly": 8228,
      "▁practically": 8229,
      "▁Hell": 8230,
      "▁Clinical": 8231,
      "▁pub": 8232,
      "▁Regardless": 8233,
      "▁brass": 8234,
      "▁Oscar": 8235,
      "▁Events": 8236,
      "▁physicians": 8237,
      "▁cents": 8238,
      "▁distant": 8239,
      "Yes": 8240,
      "▁herbs": 8241,
      "▁proceeds": 8242,
      "pro": 8243,
      "▁Safe": 8244,
      "▁drill": 8245,
      "▁favour": 8246,
      "▁dis": 8247,
      "▁Pope": 8248,
      "▁Snow": 8249,
      "▁graduates": 8250,
      "▁topped": 8251,
      "▁chaos": 8252,
      "▁tuned": 8253,
      "▁deficit": 8254,
      "▁finishes": 8255,
      "▁threshold": 8256,
      "▁node": 8257,
      "▁pursuing": 8258,
      "▁meter": 8259,
      "▁sheep": 8260,
      "▁cuisine": 8261,
      "▁snacks": 8262,
      "▁drum": 8263,
      "▁puzzle": 8264,
      "que": 8265,
      "▁trademark": 8266,
      "▁homemade": 8267,
      "▁Notice": 8268,
      "▁Brad": 8269,
      "▁fortunate": 8270,
      "▁editorial": 8271,
      "▁switching": 8272,
      "▁counting": 8273,
      "▁loyal": 8274,
      "▁sporting": 8275,
      "▁Mumbai": 8276,
      "▁tv": 8277,
      "▁crops": 8278,
      "▁Rio": 8279,
      "▁pasta": 8280,
      "▁Comments": 8281,
      "▁Ring": 8282,
      "▁Emergency": 8283,
      "▁merchandise": 8284,
      "ker": 8285,
      "▁offset": 8286,
      "▁Cheap": 8287,
      "▁GA": 8288,
      "▁structured": 8289,
      "▁Congratulations": 8290,
      "▁firmly": 8291,
      "▁Similarly": 8292,
      "▁SD": 8293,
      "po": 8294,
      "▁pressed": 8295,
      "▁Bag": 8296,
      "▁Dakota": 8297,
      "▁steering": 8298,
      "▁punishment": 8299,
      "▁vegan": 8300,
      "▁dentist": 8301,
      "ik": 8302,
      "▁Mitchell": 8303,
      "°": 8304,
      "▁drawings": 8305,
      "▁economics": 8306,
      "▁Olympics": 8307,
      "▁dessert": 8308,
      "88": 8309,
      "▁achievements": 8310,
      "▁Carl": 8311,
      "▁compounds": 8312,
      "62": 8313,
      "▁VR": 8314,
      "▁witnessed": 8315,
      "▁nominated": 8316,
      "▁unclear": 8317,
      "▁Wind": 8318,
      "▁Secret": 8319,
      "▁heroes": 8320,
      "▁WA": 8321,
      "▁urged": 8322,
      "ung": 8323,
      "▁Democrat": 8324,
      "‐": 8325,
      "▁Bathroom": 8326,
      "▁BMW": 8327,
      "▁outlook": 8328,
      "▁ONE": 8329,
      "link": 8330,
      "▁encourages": 8331,
      "under": 8332,
      "▁Amendment": 8333,
      "▁runner": 8334,
      "▁browsing": 8335,
      "▁connectivity": 8336,
      "▁Basic": 8337,
      "▁projected": 8338,
      "▁warehouse": 8339,
      "▁Housing": 8340,
      "▁threatening": 8341,
      "▁sword": 8342,
      "▁Applications": 8343,
      "▁Fred": 8344,
      "▁Woman": 8345,
      "▁partnerships": 8346,
      "▁roster": 8347,
      "▁blessing": 8348,
      "▁lung": 8349,
      "▁releasing": 8350,
      "▁mesh": 8351,
      "▁renovation": 8352,
      "iness": 8353,
      "▁Sheriff": 8354,
      "▁Collins": 8355,
      "▁Billy": 8356,
      "▁SQL": 8357,
      "▁mat": 8358,
      "▁Oracle": 8359,
      "▁portrait": 8360,
      "▁influences": 8361,
      "72": 8362,
      "▁illustrated": 8363,
      "▁rod": 8364,
      "ml": 8365,
      "▁inflammation": 8366,
      "▁exams": 8367,
      "Voter": 8368,
      "▁buses": 8369,
      "▁Mon": 8370,
      "▁arrives": 8371,
      "▁urge": 8372,
      "▁revised": 8373,
      "aka": 8374,
      "list": 8375,
      "▁Plans": 8376,
      "▁deployed": 8377,
      "▁ingredient": 8378,
      "▁adverse": 8379,
      "▁Lead": 8380,
      "▁weekends": 8381,
      "▁Survey": 8382,
      "▁deployment": 8383,
      "▁grandmother": 8384,
      "▁probability": 8385,
      "▁documented": 8386,
      "▁knock": 8387,
      "▁responding": 8388,
      "▁Bedroom": 8389,
      "▁coalition": 8390,
      "CO": 8391,
      "▁1983": 8392,
      "▁manages": 8393,
      "▁Value": 8394,
      "▁160": 8395,
      "▁inclusive": 8396,
      "▁starter": 8397,
      "▁analyzed": 8398,
      "▁Marshall": 8399,
      "▁newspapers": 8400,
      "▁Military": 8401,
      "▁surroundings": 8402,
      "▁fundraising": 8403,
      "▁1979": 8404,
      "▁cement": 8405,
      "▁forcing": 8406,
      "▁dominated": 8407,
      "▁69": 8408,
      "▁pills": 8409,
      "▁coating": 8410,
      "▁injection": 8411,
      "▁Bishop": 8412,
      "▁administrator": 8413,
      "▁ethics": 8414,
      "▁EP": 8415,
      "▁Dental": 8416,
      "▁Apparently": 8417,
      "▁founding": 8418,
      "▁sheer": 8419,
      "▁holders": 8420,
      "▁cooler": 8421,
      "▁treasure": 8422,
      "ze": 8423,
      "AM": 8424,
      "▁stadium": 8425,
      "▁evaluated": 8426,
      "▁Keith": 8427,
      "▁Yu": 8428,
      "▁rotation": 8429,
      "▁Communication": 8430,
      "mon": 8431,
      "▁Innovation": 8432,
      "▁78": 8433,
      "▁lightly": 8434,
      "▁Address": 8435,
      "▁customize": 8436,
      "▁lid": 8437,
      "▁flu": 8438,
      "▁Reuters": 8439,
      "▁creature": 8440,
      "je": 8441,
      "▁Swedish": 8442,
      "▁remarks": 8443,
      "▁castle": 8444,
      "▁Weight": 8445,
      "▁generator": 8446,
      "▁Process": 8447,
      "▁positioned": 8448,
      "ria": 8449,
      "▁diesel": 8450,
      "▁keywords": 8451,
      "▁complications": 8452,
      "▁Treatment": 8453,
      "98": 8454,
      "▁undergraduate": 8455,
      "▁Delta": 8456,
      "▁flew": 8457,
      "▁duo": 8458,
      "▁tobacco": 8459,
      "▁punch": 8460,
      "▁Transportation": 8461,
      "▁Close": 8462,
      "▁Kent": 8463,
      "▁Samuel": 8464,
      "▁reviewing": 8465,
      "▁commands": 8466,
      "▁Floor": 8467,
      "▁Directors": 8468,
      "▁mud": 8469,
      "▁innings": 8470,
      "▁NBC": 8471,
      "▁strengths": 8472,
      "▁Zone": 8473,
      "century": 8474,
      "▁reservation": 8475,
      "▁hyper": 8476,
      "▁Christianity": 8477,
      "▁grasp": 8478,
      "▁elementary": 8479,
      "▁Adobe": 8480,
      "▁1982": 8481,
      "▁Birthday": 8482,
      "▁calculate": 8483,
      "▁assignments": 8484,
      "▁zones": 8485,
      "▁1930": 8486,
      "▁Ready": 8487,
      "▁railway": 8488,
      "▁Visual": 8489,
      "▁mis": 8490,
      "▁notified": 8491,
      "▁defendant": 8492,
      "▁altogether": 8493,
      "▁spine": 8494,
      "ology": 8495,
      "▁ugly": 8496,
      "▁Masters": 8497,
      "▁Pick": 8498,
      "▁Theory": 8499,
      "▁lawmakers": 8500,
      "▁durability": 8501,
      "▁consequence": 8502,
      "▁stating": 8503,
      "▁Includes": 8504,
      "▁trace": 8505,
      "▁schemes": 8506,
      "▁advisor": 8507,
      "▁intensive": 8508,
      "▁frustration": 8509,
      "▁Users": 8510,
      "▁Ver": 8511,
      "▁centres": 8512,
      "▁Cruz": 8513,
      "▁spreading": 8514,
      "▁abundance": 8515,
      "▁confusing": 8516,
      "▁securities": 8517,
      "▁modeling": 8518,
      "▁Boys": 8519,
      "▁camps": 8520,
      "▁smoothly": 8521,
      "▁tweet": 8522,
      "read": 8523,
      "▁Questions": 8524,
      "▁minerals": 8525,
      "▁withdrawal": 8526,
      "▁planted": 8527,
      "▁printable": 8528,
      "▁Kenya": 8529,
      "▁Jun": 8530,
      "▁breathe": 8531,
      "▁surveys": 8532,
      "face": 8533,
      "▁Primary": 8534,
      "▁130": 8535,
      "▁spirits": 8536,
      "▁distinction": 8537,
      "▁hassle": 8538,
      "▁scientist": 8539,
      "63": 8540,
      "▁poly": 8541,
      "▁tunnel": 8542,
      "▁belongs": 8543,
      "▁midnight": 8544,
      "ho": 8545,
      "▁Nor": 8546,
      "▁1920": 8547,
      "▁Related": 8548,
      "▁avoided": 8549,
      "▁pole": 8550,
      "▁wealthy": 8551,
      "where": 8552,
      "▁Linda": 8553,
      "Ã": 8554,
      "▁pending": 8555,
      "mann": 8556,
      "▁Philip": 8557,
      "▁ST": 8558,
      "▁firing": 8559,
      "▁elevated": 8560,
      "▁distribute": 8561,
      "▁acids": 8562,
      "▁cope": 8563,
      "▁lifting": 8564,
      "▁inevitable": 8565,
      "▁quietly": 8566,
      "▁realise": 8567,
      "▁wallet": 8568,
      "▁profound": 8569,
      "▁tomato": 8570,
      "▁Sand": 8571,
      "▁frustrated": 8572,
      "▁constitutional": 8573,
      "▁genuinely": 8574,
      "▁Registration": 8575,
      "▁cargo": 8576,
      "▁sweat": 8577,
      "▁lacking": 8578,
      "▁Emma": 8579,
      "▁font": 8580,
      "▁shirts": 8581,
      "68": 8582,
      "ette": 8583,
      "rate": 8584,
      "▁practitioners": 8585,
      "▁appointments": 8586,
      "▁logged": 8587,
      "▁Active": 8588,
      "▁Tyler": 8589,
      "▁dividend": 8590,
      "▁onion": 8591,
      "▁behaviors": 8592,
      "▁Nike": 8593,
      "▁adjustments": 8594,
      "▁hi": 8595,
      "▁laughed": 8596,
      "▁seniors": 8597,
      "▁oz": 8598,
      "▁deputy": 8599,
      "Pro": 8600,
      "▁crisp": 8601,
      "▁recognised": 8602,
      "▁conflicts": 8603,
      "▁theoretical": 8604,
      "▁ecosystem": 8605,
      "▁Options": 8606,
      "▁necessity": 8607,
      "▁activation": 8608,
      "▁Stanley": 8609,
      "▁accent": 8610,
      "▁baked": 8611,
      "sky": 8612,
      "▁modes": 8613,
      "▁Lu": 8614,
      "▁140": 8615,
      "▁Outdoor": 8616,
      "▁dismissed": 8617,
      "▁Agent": 8618,
      "▁influential": 8619,
      "▁saves": 8620,
      "▁Apply": 8621,
      "▁flowing": 8622,
      "cha": 8623,
      "▁Morning": 8624,
      "▁knees": 8625,
      "▁vol": 8626,
      "▁jam": 8627,
      "▁SE": 8628,
      "▁Template": 8629,
      "▁Guy": 8630,
      "▁attendees": 8631,
      "▁crap": 8632,
      "▁brave": 8633,
      "▁consuming": 8634,
      "▁occurring": 8635,
      "▁Return": 8636,
      "▁Kyle": 8637,
      "▁mounting": 8638,
      "screen": 8639,
      "▁celebrity": 8640,
      "▁roller": 8641,
      "▁washed": 8642,
      "▁Perry": 8643,
      "▁fifty": 8644,
      "▁athletic": 8645,
      "▁lecture": 8646,
      "▁modest": 8647,
      "▁travels": 8648,
      "▁Target": 8649,
      "▁equality": 8650,
      "▁rewarding": 8651,
      "ani": 8652,
      "▁temporarily": 8653,
      "▁disappeared": 8654,
      "▁blanket": 8655,
      "▁Economics": 8656,
      "ron": 8657,
      "▁skirt": 8658,
      "▁gluten": 8659,
      "▁bears": 8660,
      "▁Jake": 8661,
      "▁pools": 8662,
      "▁Murphy": 8663,
      "▁noon": 8664,
      "▁Truth": 8665,
      "Go": 8666,
      "▁cellular": 8667,
      "▁Birmingham": 8668,
      "▁Jessica": 8669,
      "▁trap": 8670,
      "▁sells": 8671,
      "▁associations": 8672,
      "ci": 8673,
      "▁touching": 8674,
      "▁Manual": 8675,
      "▁cousin": 8676,
      "▁likewise": 8677,
      "▁Ward": 8678,
      "▁amazed": 8679,
      "▁74": 8680,
      "900": 8681,
      "▁defending": 8682,
      "▁organizational": 8683,
      "▁sometime": 8684,
      "▁Fe": 8685,
      "▁upgraded": 8686,
      "▁Bird": 8687,
      "▁Johnny": 8688,
[...]
